{
  "version": "1.0",
  "truncation": null,
  "padding": null,
  "added_tokens": [
    {
      "id": 0,
      "content": "[UNK]",
      "single_word": false,
      "lstrip": false,
      "rstrip": false,
      "normalized": false,
      "special": true
    }
  ],
  "normalizer": null,
  "pre_tokenizer": {
    "type": "Whitespace"
  },
  "post_processor": null,
  "decoder": null,
  "model": {
    "type": "BPE",
    "dropout": null,
    "unk_token": "[UNK]",
    "continuing_subword_prefix": null,
    "end_of_word_suffix": null,
    "fuse_unk": false,
    "byte_fallback": false,
    "ignore_merges": false,
    "vocab": {
      "[UNK]": 0,
      "!": 1,
      "\"": 2,
      "&": 3,
      "'": 4,
      "(": 5,
      ")": 6,
      ",": 7,
      "-": 8,
      ".": 9,
      "/": 10,
      "0": 11,
      "1": 12,
      "2": 13,
      "3": 14,
      "4": 15,
      "5": 16,
      "6": 17,
      "7": 18,
      "8": 19,
      "9": 20,
      ":": 21,
      ";": 22,
      "?": 23,
      "A": 24,
      "B": 25,
      "C": 26,
      "D": 27,
      "E": 28,
      "F": 29,
      "G": 30,
      "H": 31,
      "I": 32,
      "J": 33,
      "K": 34,
      "L": 35,
      "M": 36,
      "N": 37,
      "O": 38,
      "P": 39,
      "Q": 40,
      "R": 41,
      "S": 42,
      "T": 43,
      "U": 44,
      "V": 45,
      "W": 46,
      "X": 47,
      "Y": 48,
      "Z": 49,
      "[": 50,
      "\\": 51,
      "a": 52,
      "b": 53,
      "c": 54,
      "d": 55,
      "e": 56,
      "f": 57,
      "g": 58,
      "h": 59,
      "i": 60,
      "j": 61,
      "k": 62,
      "l": 63,
      "m": 64,
      "n": 65,
      "o": 66,
      "p": 67,
      "q": 68,
      "r": 69,
      "s": 70,
      "t": 71,
      "u": 72,
      "v": 73,
      "w": 74,
      "x": 75,
      "y": 76,
      "z": 77,
      "{": 78,
      "}": 79,
      "—": 80,
      "‘": 81,
      "’": 82,
      "“": 83,
      "”": 84,
      "th": 85,
      "the": 86,
      "in": 87,
      "an": 88,
      "re": 89,
      "ou": 90,
      "and": 91,
      "on": 92,
      "er": 93,
      "at": 94,
      "he": 95,
      "as": 96,
      "ed": 97,
      "en": 98,
      "of": 99,
      "to": 100,
      "ing": 101,
      "or": 102,
      "ll": 103,
      "is": 104,
      "ar": 105,
      "es": 106,
      "it": 107,
      "ha": 108,
      "le": 109,
      "st": 110,
      "me": 111,
      "be": 112,
      "ow": 113,
      "we": 114,
      "was": 115,
      "se": 116,
      "id": 117,
      "ld": 118,
      "hi": 119,
      "ro": 120,
      "ve": 121,
      "gh": 122,
      "wi": 123,
      "ac": 124,
      "that": 125,
      "no": 126,
      "ly": 127,
      "al": 128,
      "ch": 129,
      "all": 130,
      "ver": 131,
      "you": 132,
      "his": 133,
      "had": 134,
      "ut": 135,
      "li": 136,
      "ir": 137,
      "ay": 138,
      "The": 139,
      "for": 140,
      "ad": 141,
      "un": 142,
      "ri": 143,
      "ght": 144,
      "with": 145,
      "ould": 146,
      "so": 147,
      "ti": 148,
      "sa": 149,
      "oo": 150,
      "they": 151,
      "ent": 152,
      "up": 153,
      "ke": 154,
      "ag": 155,
      "ce": 156,
      "ho": 157,
      "were": 158,
      "out": 159,
      "oun": 160,
      "not": 161,
      "ur": 162,
      "co": 163,
      "our": 164,
      "am": 165,
      "ain": 166,
      "bo": 167,
      "mo": 168,
      "one": 169,
      "us": 170,
      "il": 171,
      "whi": 172,
      "ne": 173,
      "ter": 174,
      "pe": 175,
      "fe": 176,
      "red": 177,
      "ge": 178,
      "have": 179,
      "ard": 180,
      "go": 181,
      "said": 182,
      "ca": 183,
      "ther": 184,
      "ab": 185,
      "my": 186,
      "ong": 187,
      "them": 188,
      "which": 189,
      "rom": 190,
      "but": 191,
      "hat": 192,
      "de": 193,
      "ess": 194,
      "him": 195,
      "own": 196,
      "ck": 197,
      "um": 198,
      "are": 199,
      "ast": 200,
      "from": 201,
      "their": 202,
      "fo": 203,
      "ves": 204,
      "whe": 205,
      "sh": 206,
      "lo": 207,
      "po": 208,
      "ion": 209,
      "ack": 210,
      "could": 211,
      "if": 212,
      "ound": 213,
      "bl": 214,
      "ood": 215,
      "some": 216,
      "there": 217,
      "do": 218,
      "pl": 219,
      "ind": 220,
      "He": 221,
      "ure": 222,
      "way": 223,
      "any": 224,
      "now": 225,
      "gre": 226,
      "ap": 227,
      "end": 228,
      "ex": 229,
      "It": 230,
      "thing": 231,
      "et": 232,
      "Bil": 233,
      "Bilbo": 234,
      "by": 235,
      "fi": 236,
      "ous": 237,
      "very": 238,
      "this": 239,
      "fore": 240,
      "tr": 241,
      "!”": 242,
      "see": 243,
      "ough": 244,
      "ul": 245,
      "ust": 246,
      "ide": 247,
      "ight": 248,
      "qu": 249,
      "would": 250,
      "te": 251,
      "down": 252,
      "ted": 253,
      "king": 254,
      "ven": 255,
      "upon": 256,
      "hall": 257,
      "war": 258,
      "gr": 259,
      "der": 260,
      "can": 261,
      "br": 262,
      "ill": 263,
      "su": 264,
      "into": 265,
      "been": 266,
      "hed": 267,
      ".\"": 268,
      "like": 269,
      "more": 270,
      "ss": 271,
      "ate": 272,
      "ord": 273,
      "ped": 274,
      "ake": 275,
      "ked": 276,
      "ger": 277,
      "con": 278,
      "will": 279,
      "too": 280,
      "com": 281,
      "sp": 282,
      "lf": 283,
      "back": 284,
      "ep": 285,
      "what": 286,
      "who": 287,
      "--": 288,
      "tain": 289,
      "when": 290,
      "long": 291,
      "tre": 292,
      "ins": 293,
      "came": 294,
      "We": 295,
      "im": 296,
      "hor": 297,
      "great": 298,
      "loo": 299,
      "your": 300,
      "other": 301,
      "ers": 302,
      "ace": 303,
      "ic": 304,
      "ts": 305,
      ",”": 306,
      "tion": 307,
      "man": 308,
      "af": 309,
      "el": 310,
      "before": 311,
      "pre": 312,
      "time": 313,
      "op": 314,
      "But": 315,
      "ark": 316,
      "over": 317,
      "itt": 318,
      "dwar": 319,
      "dr": 320,
      "mer": 321,
      "nd": 322,
      "au": 323,
      "str": 324,
      "ought": 325,
      "ite": 326,
      ".”": 327,
      "day": 328,
      "low": 329,
      "again": 330,
      "come": 331,
      "cr": 332,
      "ant": 333,
      "They": 334,
      "ey": 335,
      "urn": 336,
      "about": 337,
      "ble": 338,
      "ci": 339,
      "bit": 340,
      "able": 341,
      "get": 342,
      "wo": 343,
      "ment": 344,
      "dis": 345,
      "than": 346,
      "ation": 347,
      ",\"": 348,
      "light": 349,
      "ever": 350,
      "only": 351,
      "est": 352,
      "thr": 353,
      "There": 354,
      "dwarves": 355,
      "ak": 356,
      "per": 357,
      "ward": 358,
      "ade": 359,
      "ountain": 360,
      "pro": 361,
      "ally": 362,
      "cl": 363,
      "ass": 364,
      "turn": 365,
      "self": 366,
      "hand": 367,
      "ink": 368,
      "men": 369,
      "should": 370,
      "ittle": 371,
      "ct": 372,
      "cre": 373,
      "good": 374,
      "little": 375,
      "So": 376,
      "ive": 377,
      "where": 378,
      "led": 379,
      "last": 380,
      "its": 381,
      "Thor": 382,
      "did": 383,
      "Thorin": 384,
      "med": 385,
      "off": 386,
      "under": 387,
      "after": 388,
      "ick": 389,
      "ty": 390,
      "enger": 391,
      "still": 392,
      "read": 393,
      "even": 394,
      "far": 395,
      "ance": 396,
      "head": 397,
      "ath": 398,
      "wor": 399,
      "ig": 400,
      "par": 401,
      "then": 402,
      "mb": 403,
      "most": 404,
      "know": 405,
      "ning": 406,
      "You": 407,
      "ence": 408,
      "Chall": 409,
      "che": 410,
      "dark": 411,
      "ried": 412,
      "got": 413,
      "Challenger": 414,
      "wat": 415,
      "rof": 416,
      "ans": 417,
      "In": 418,
      "?\"": 419,
      "made": 420,
      "ting": 421,
      "dd": 422,
      "gl": 423,
      "round": 424,
      "ine": 425,
      "gu": 426,
      "went": 427,
      "aw": 428,
      "how": 429,
      "right": 430,
      "And": 431,
      "ved": 432,
      "rofess": 433,
      "Then": 434,
      "through": 435,
      "side": 436,
      "ull": 437,
      "here": 438,
      "ave": 439,
      "may": 440,
      "well": 441,
      "fl": 442,
      "thought": 443,
      "say": 444,
      "ry": 445,
      "rofessor": 446,
      "while": 447,
      "ish": 448,
      "must": 449,
      "air": 450,
      "away": 451,
      "ful": 452,
      "wood": 453,
      "alf": 454,
      "fell": 455,
      "don": 456,
      "beg": 457,
      "What": 458,
      "hap": 459,
      "Professor": 460,
      "ft": 461,
      "less": 462,
      "spe": 463,
      "ort": 464,
      "Gand": 465,
      "has": 466,
      "sm": 467,
      "age": 468,
      "Gandalf": 469,
      "gobl": 470,
      "di": 471,
      "mu": 472,
      "night": 473,
      "No": 474,
      "ang": 475,
      "ummer": 476,
      "irst": 477,
      "door": 478,
      "ened": 479,
      "bbit": 480,
      "never": 481,
      "?”": 482,
      "ear": 483,
      "new": 484,
      "ach": 485,
      "many": 486,
      "two": 487,
      "sto": 488,
      "vo": 489,
      "Lord": 490,
      "old": 491,
      "vi": 492,
      "think": 493,
      "hobbit": 494,
      "found": 495,
      "hun": 496,
      "pt": 497,
      "ature": 498,
      "lee": 499
    },
    "merges": [
      [
        "t",
        "h"
      ],
      [
        "th",
        "e"
      ],
      [
        "i",
        "n"
      ],
      [
        "a",
        "n"
      ],
      [
        "r",
        "e"
      ],
      [
        "o",
        "u"
      ],
      [
        "an",
        "d"
      ],
      [
        "o",
        "n"
      ],
      [
        "e",
        "r"
      ],
      [
        "a",
        "t"
      ],
      [
        "h",
        "e"
      ],
      [
        "a",
        "s"
      ],
      [
        "e",
        "d"
      ],
      [
        "e",
        "n"
      ],
      [
        "o",
        "f"
      ],
      [
        "t",
        "o"
      ],
      [
        "in",
        "g"
      ],
      [
        "o",
        "r"
      ],
      [
        "l",
        "l"
      ],
      [
        "i",
        "s"
      ],
      [
        "a",
        "r"
      ],
      [
        "e",
        "s"
      ],
      [
        "i",
        "t"
      ],
      [
        "h",
        "a"
      ],
      [
        "l",
        "e"
      ],
      [
        "s",
        "t"
      ],
      [
        "m",
        "e"
      ],
      [
        "b",
        "e"
      ],
      [
        "o",
        "w"
      ],
      [
        "w",
        "e"
      ],
      [
        "w",
        "as"
      ],
      [
        "s",
        "e"
      ],
      [
        "i",
        "d"
      ],
      [
        "l",
        "d"
      ],
      [
        "h",
        "i"
      ],
      [
        "r",
        "o"
      ],
      [
        "v",
        "e"
      ],
      [
        "g",
        "h"
      ],
      [
        "w",
        "i"
      ],
      [
        "a",
        "c"
      ],
      [
        "th",
        "at"
      ],
      [
        "n",
        "o"
      ],
      [
        "l",
        "y"
      ],
      [
        "a",
        "l"
      ],
      [
        "c",
        "h"
      ],
      [
        "a",
        "ll"
      ],
      [
        "v",
        "er"
      ],
      [
        "y",
        "ou"
      ],
      [
        "h",
        "is"
      ],
      [
        "ha",
        "d"
      ],
      [
        "u",
        "t"
      ],
      [
        "l",
        "i"
      ],
      [
        "i",
        "r"
      ],
      [
        "a",
        "y"
      ],
      [
        "T",
        "he"
      ],
      [
        "f",
        "or"
      ],
      [
        "a",
        "d"
      ],
      [
        "u",
        "n"
      ],
      [
        "r",
        "i"
      ],
      [
        "gh",
        "t"
      ],
      [
        "wi",
        "th"
      ],
      [
        "ou",
        "ld"
      ],
      [
        "s",
        "o"
      ],
      [
        "t",
        "i"
      ],
      [
        "s",
        "a"
      ],
      [
        "o",
        "o"
      ],
      [
        "the",
        "y"
      ],
      [
        "en",
        "t"
      ],
      [
        "u",
        "p"
      ],
      [
        "k",
        "e"
      ],
      [
        "a",
        "g"
      ],
      [
        "c",
        "e"
      ],
      [
        "h",
        "o"
      ],
      [
        "we",
        "re"
      ],
      [
        "ou",
        "t"
      ],
      [
        "ou",
        "n"
      ],
      [
        "no",
        "t"
      ],
      [
        "u",
        "r"
      ],
      [
        "c",
        "o"
      ],
      [
        "ou",
        "r"
      ],
      [
        "a",
        "m"
      ],
      [
        "a",
        "in"
      ],
      [
        "b",
        "o"
      ],
      [
        "m",
        "o"
      ],
      [
        "on",
        "e"
      ],
      [
        "u",
        "s"
      ],
      [
        "i",
        "l"
      ],
      [
        "w",
        "hi"
      ],
      [
        "n",
        "e"
      ],
      [
        "t",
        "er"
      ],
      [
        "p",
        "e"
      ],
      [
        "f",
        "e"
      ],
      [
        "re",
        "d"
      ],
      [
        "g",
        "e"
      ],
      [
        "ha",
        "ve"
      ],
      [
        "ar",
        "d"
      ],
      [
        "g",
        "o"
      ],
      [
        "sa",
        "id"
      ],
      [
        "c",
        "a"
      ],
      [
        "the",
        "r"
      ],
      [
        "a",
        "b"
      ],
      [
        "m",
        "y"
      ],
      [
        "on",
        "g"
      ],
      [
        "the",
        "m"
      ],
      [
        "whi",
        "ch"
      ],
      [
        "ro",
        "m"
      ],
      [
        "b",
        "ut"
      ],
      [
        "h",
        "at"
      ],
      [
        "d",
        "e"
      ],
      [
        "es",
        "s"
      ],
      [
        "hi",
        "m"
      ],
      [
        "ow",
        "n"
      ],
      [
        "c",
        "k"
      ],
      [
        "u",
        "m"
      ],
      [
        "a",
        "re"
      ],
      [
        "as",
        "t"
      ],
      [
        "f",
        "rom"
      ],
      [
        "the",
        "ir"
      ],
      [
        "f",
        "o"
      ],
      [
        "v",
        "es"
      ],
      [
        "w",
        "he"
      ],
      [
        "s",
        "h"
      ],
      [
        "l",
        "o"
      ],
      [
        "p",
        "o"
      ],
      [
        "i",
        "on"
      ],
      [
        "ac",
        "k"
      ],
      [
        "c",
        "ould"
      ],
      [
        "i",
        "f"
      ],
      [
        "oun",
        "d"
      ],
      [
        "b",
        "l"
      ],
      [
        "oo",
        "d"
      ],
      [
        "so",
        "me"
      ],
      [
        "the",
        "re"
      ],
      [
        "d",
        "o"
      ],
      [
        "p",
        "l"
      ],
      [
        "in",
        "d"
      ],
      [
        "H",
        "e"
      ],
      [
        "u",
        "re"
      ],
      [
        "w",
        "ay"
      ],
      [
        "an",
        "y"
      ],
      [
        "n",
        "ow"
      ],
      [
        "g",
        "re"
      ],
      [
        "a",
        "p"
      ],
      [
        "en",
        "d"
      ],
      [
        "e",
        "x"
      ],
      [
        "I",
        "t"
      ],
      [
        "th",
        "ing"
      ],
      [
        "e",
        "t"
      ],
      [
        "B",
        "il"
      ],
      [
        "Bil",
        "bo"
      ],
      [
        "b",
        "y"
      ],
      [
        "f",
        "i"
      ],
      [
        "ou",
        "s"
      ],
      [
        "ver",
        "y"
      ],
      [
        "th",
        "is"
      ],
      [
        "fo",
        "re"
      ],
      [
        "t",
        "r"
      ],
      [
        "!",
        "”"
      ],
      [
        "se",
        "e"
      ],
      [
        "ou",
        "gh"
      ],
      [
        "u",
        "l"
      ],
      [
        "u",
        "st"
      ],
      [
        "id",
        "e"
      ],
      [
        "i",
        "ght"
      ],
      [
        "q",
        "u"
      ],
      [
        "w",
        "ould"
      ],
      [
        "t",
        "e"
      ],
      [
        "d",
        "own"
      ],
      [
        "t",
        "ed"
      ],
      [
        "k",
        "ing"
      ],
      [
        "v",
        "en"
      ],
      [
        "up",
        "on"
      ],
      [
        "ha",
        "ll"
      ],
      [
        "w",
        "ar"
      ],
      [
        "g",
        "r"
      ],
      [
        "d",
        "er"
      ],
      [
        "c",
        "an"
      ],
      [
        "b",
        "r"
      ],
      [
        "i",
        "ll"
      ],
      [
        "s",
        "u"
      ],
      [
        "in",
        "to"
      ],
      [
        "be",
        "en"
      ],
      [
        "he",
        "d"
      ],
      [
        ".",
        "\""
      ],
      [
        "li",
        "ke"
      ],
      [
        "mo",
        "re"
      ],
      [
        "s",
        "s"
      ],
      [
        "at",
        "e"
      ],
      [
        "or",
        "d"
      ],
      [
        "p",
        "ed"
      ],
      [
        "a",
        "ke"
      ],
      [
        "k",
        "ed"
      ],
      [
        "g",
        "er"
      ],
      [
        "c",
        "on"
      ],
      [
        "wi",
        "ll"
      ],
      [
        "to",
        "o"
      ],
      [
        "co",
        "m"
      ],
      [
        "s",
        "p"
      ],
      [
        "l",
        "f"
      ],
      [
        "b",
        "ack"
      ],
      [
        "e",
        "p"
      ],
      [
        "w",
        "hat"
      ],
      [
        "w",
        "ho"
      ],
      [
        "-",
        "-"
      ],
      [
        "t",
        "ain"
      ],
      [
        "whe",
        "n"
      ],
      [
        "l",
        "ong"
      ],
      [
        "t",
        "re"
      ],
      [
        "in",
        "s"
      ],
      [
        "ca",
        "me"
      ],
      [
        "W",
        "e"
      ],
      [
        "i",
        "m"
      ],
      [
        "h",
        "or"
      ],
      [
        "gre",
        "at"
      ],
      [
        "l",
        "oo"
      ],
      [
        "you",
        "r"
      ],
      [
        "o",
        "ther"
      ],
      [
        "er",
        "s"
      ],
      [
        "ac",
        "e"
      ],
      [
        "i",
        "c"
      ],
      [
        "t",
        "s"
      ],
      [
        ",",
        "”"
      ],
      [
        "ti",
        "on"
      ],
      [
        "m",
        "an"
      ],
      [
        "a",
        "f"
      ],
      [
        "e",
        "l"
      ],
      [
        "be",
        "fore"
      ],
      [
        "p",
        "re"
      ],
      [
        "ti",
        "me"
      ],
      [
        "o",
        "p"
      ],
      [
        "B",
        "ut"
      ],
      [
        "ar",
        "k"
      ],
      [
        "o",
        "ver"
      ],
      [
        "it",
        "t"
      ],
      [
        "d",
        "war"
      ],
      [
        "d",
        "r"
      ],
      [
        "m",
        "er"
      ],
      [
        "n",
        "d"
      ],
      [
        "a",
        "u"
      ],
      [
        "st",
        "r"
      ],
      [
        "ou",
        "ght"
      ],
      [
        "it",
        "e"
      ],
      [
        ".",
        "”"
      ],
      [
        "d",
        "ay"
      ],
      [
        "l",
        "ow"
      ],
      [
        "ag",
        "ain"
      ],
      [
        "co",
        "me"
      ],
      [
        "c",
        "r"
      ],
      [
        "an",
        "t"
      ],
      [
        "The",
        "y"
      ],
      [
        "e",
        "y"
      ],
      [
        "ur",
        "n"
      ],
      [
        "ab",
        "out"
      ],
      [
        "b",
        "le"
      ],
      [
        "c",
        "i"
      ],
      [
        "b",
        "it"
      ],
      [
        "ab",
        "le"
      ],
      [
        "ge",
        "t"
      ],
      [
        "w",
        "o"
      ],
      [
        "m",
        "ent"
      ],
      [
        "d",
        "is"
      ],
      [
        "th",
        "an"
      ],
      [
        "at",
        "ion"
      ],
      [
        ",",
        "\""
      ],
      [
        "li",
        "ght"
      ],
      [
        "e",
        "ver"
      ],
      [
        "on",
        "ly"
      ],
      [
        "es",
        "t"
      ],
      [
        "th",
        "r"
      ],
      [
        "The",
        "re"
      ],
      [
        "dwar",
        "ves"
      ],
      [
        "a",
        "k"
      ],
      [
        "p",
        "er"
      ],
      [
        "w",
        "ard"
      ],
      [
        "ad",
        "e"
      ],
      [
        "oun",
        "tain"
      ],
      [
        "p",
        "ro"
      ],
      [
        "all",
        "y"
      ],
      [
        "c",
        "l"
      ],
      [
        "as",
        "s"
      ],
      [
        "t",
        "urn"
      ],
      [
        "se",
        "lf"
      ],
      [
        "h",
        "and"
      ],
      [
        "in",
        "k"
      ],
      [
        "m",
        "en"
      ],
      [
        "sh",
        "ould"
      ],
      [
        "itt",
        "le"
      ],
      [
        "c",
        "t"
      ],
      [
        "c",
        "re"
      ],
      [
        "g",
        "ood"
      ],
      [
        "l",
        "ittle"
      ],
      [
        "S",
        "o"
      ],
      [
        "i",
        "ve"
      ],
      [
        "whe",
        "re"
      ],
      [
        "l",
        "ed"
      ],
      [
        "l",
        "ast"
      ],
      [
        "it",
        "s"
      ],
      [
        "T",
        "hor"
      ],
      [
        "d",
        "id"
      ],
      [
        "Thor",
        "in"
      ],
      [
        "m",
        "ed"
      ],
      [
        "of",
        "f"
      ],
      [
        "un",
        "der"
      ],
      [
        "af",
        "ter"
      ],
      [
        "i",
        "ck"
      ],
      [
        "t",
        "y"
      ],
      [
        "en",
        "ger"
      ],
      [
        "st",
        "ill"
      ],
      [
        "re",
        "ad"
      ],
      [
        "e",
        "ven"
      ],
      [
        "f",
        "ar"
      ],
      [
        "an",
        "ce"
      ],
      [
        "he",
        "ad"
      ],
      [
        "a",
        "th"
      ],
      [
        "w",
        "or"
      ],
      [
        "i",
        "g"
      ],
      [
        "p",
        "ar"
      ],
      [
        "the",
        "n"
      ],
      [
        "m",
        "b"
      ],
      [
        "mo",
        "st"
      ],
      [
        "k",
        "now"
      ],
      [
        "n",
        "ing"
      ],
      [
        "Y",
        "ou"
      ],
      [
        "en",
        "ce"
      ],
      [
        "C",
        "hall"
      ],
      [
        "c",
        "he"
      ],
      [
        "d",
        "ark"
      ],
      [
        "ri",
        "ed"
      ],
      [
        "go",
        "t"
      ],
      [
        "Chall",
        "enger"
      ],
      [
        "w",
        "at"
      ],
      [
        "r",
        "of"
      ],
      [
        "an",
        "s"
      ],
      [
        "I",
        "n"
      ],
      [
        "?",
        "\""
      ],
      [
        "m",
        "ade"
      ],
      [
        "t",
        "ing"
      ],
      [
        "d",
        "d"
      ],
      [
        "g",
        "l"
      ],
      [
        "r",
        "ound"
      ],
      [
        "in",
        "e"
      ],
      [
        "g",
        "u"
      ],
      [
        "w",
        "ent"
      ],
      [
        "a",
        "w"
      ],
      [
        "h",
        "ow"
      ],
      [
        "ri",
        "ght"
      ],
      [
        "A",
        "nd"
      ],
      [
        "v",
        "ed"
      ],
      [
        "rof",
        "ess"
      ],
      [
        "The",
        "n"
      ],
      [
        "thr",
        "ough"
      ],
      [
        "s",
        "ide"
      ],
      [
        "u",
        "ll"
      ],
      [
        "he",
        "re"
      ],
      [
        "a",
        "ve"
      ],
      [
        "m",
        "ay"
      ],
      [
        "we",
        "ll"
      ],
      [
        "f",
        "l"
      ],
      [
        "th",
        "ought"
      ],
      [
        "s",
        "ay"
      ],
      [
        "r",
        "y"
      ],
      [
        "rofess",
        "or"
      ],
      [
        "whi",
        "le"
      ],
      [
        "is",
        "h"
      ],
      [
        "m",
        "ust"
      ],
      [
        "a",
        "ir"
      ],
      [
        "a",
        "way"
      ],
      [
        "f",
        "ul"
      ],
      [
        "w",
        "ood"
      ],
      [
        "al",
        "f"
      ],
      [
        "fe",
        "ll"
      ],
      [
        "d",
        "on"
      ],
      [
        "be",
        "g"
      ],
      [
        "W",
        "hat"
      ],
      [
        "ha",
        "p"
      ],
      [
        "P",
        "rofessor"
      ],
      [
        "f",
        "t"
      ],
      [
        "l",
        "ess"
      ],
      [
        "s",
        "pe"
      ],
      [
        "or",
        "t"
      ],
      [
        "G",
        "and"
      ],
      [
        "h",
        "as"
      ],
      [
        "s",
        "m"
      ],
      [
        "ag",
        "e"
      ],
      [
        "Gand",
        "alf"
      ],
      [
        "go",
        "bl"
      ],
      [
        "d",
        "i"
      ],
      [
        "m",
        "u"
      ],
      [
        "n",
        "ight"
      ],
      [
        "N",
        "o"
      ],
      [
        "an",
        "g"
      ],
      [
        "um",
        "mer"
      ],
      [
        "ir",
        "st"
      ],
      [
        "do",
        "or"
      ],
      [
        "en",
        "ed"
      ],
      [
        "b",
        "bit"
      ],
      [
        "ne",
        "ver"
      ],
      [
        "?",
        "”"
      ],
      [
        "e",
        "ar"
      ],
      [
        "ne",
        "w"
      ],
      [
        "ac",
        "h"
      ],
      [
        "m",
        "any"
      ],
      [
        "t",
        "wo"
      ],
      [
        "s",
        "to"
      ],
      [
        "v",
        "o"
      ],
      [
        "L",
        "ord"
      ],
      [
        "o",
        "ld"
      ],
      [
        "v",
        "i"
      ],
      [
        "th",
        "ink"
      ],
      [
        "ho",
        "bbit"
      ],
      [
        "f",
        "ound"
      ],
      [
        "h",
        "un"
      ],
      [
        "p",
        "t"
      ],
      [
        "at",
        "ure"
      ],
      [
        "le",
        "e"
      ]
    ]
  }
}