{
  "version": "1.0",
  "truncation": null,
  "padding": null,
  "added_tokens": [
    {
      "id": 0,
      "content": "[UNK]",
      "single_word": false,
      "lstrip": false,
      "rstrip": false,
      "normalized": false,
      "special": true
    }
  ],
  "normalizer": null,
  "pre_tokenizer": {
    "type": "Whitespace"
  },
  "post_processor": null,
  "decoder": null,
  "model": {
    "type": "BPE",
    "dropout": null,
    "unk_token": "[UNK]",
    "continuing_subword_prefix": null,
    "end_of_word_suffix": null,
    "fuse_unk": false,
    "byte_fallback": false,
    "ignore_merges": false,
    "vocab": {
      "[UNK]": 0,
      "!": 1,
      "\"": 2,
      "&": 3,
      "'": 4,
      "(": 5,
      ")": 6,
      ",": 7,
      "-": 8,
      ".": 9,
      "/": 10,
      "0": 11,
      "1": 12,
      "2": 13,
      "3": 14,
      "4": 15,
      "5": 16,
      "6": 17,
      "7": 18,
      "8": 19,
      "9": 20,
      ":": 21,
      ";": 22,
      "?": 23,
      "A": 24,
      "B": 25,
      "C": 26,
      "D": 27,
      "E": 28,
      "F": 29,
      "G": 30,
      "H": 31,
      "I": 32,
      "J": 33,
      "K": 34,
      "L": 35,
      "M": 36,
      "N": 37,
      "O": 38,
      "P": 39,
      "Q": 40,
      "R": 41,
      "S": 42,
      "T": 43,
      "U": 44,
      "V": 45,
      "W": 46,
      "X": 47,
      "Y": 48,
      "Z": 49,
      "[": 50,
      "\\": 51,
      "a": 52,
      "b": 53,
      "c": 54,
      "d": 55,
      "e": 56,
      "f": 57,
      "g": 58,
      "h": 59,
      "i": 60,
      "j": 61,
      "k": 62,
      "l": 63,
      "m": 64,
      "n": 65,
      "o": 66,
      "p": 67,
      "q": 68,
      "r": 69,
      "s": 70,
      "t": 71,
      "u": 72,
      "v": 73,
      "w": 74,
      "x": 75,
      "y": 76,
      "z": 77,
      "{": 78,
      "}": 79,
      "—": 80,
      "‘": 81,
      "’": 82,
      "“": 83,
      "”": 84,
      "th": 85,
      "the": 86,
      "in": 87,
      "an": 88,
      "re": 89,
      "ou": 90,
      "and": 91,
      "on": 92,
      "er": 93,
      "at": 94,
      "he": 95,
      "as": 96,
      "ed": 97,
      "en": 98,
      "of": 99,
      "to": 100,
      "ing": 101,
      "or": 102,
      "ll": 103,
      "is": 104,
      "ar": 105,
      "es": 106,
      "it": 107,
      "ha": 108,
      "le": 109,
      "st": 110,
      "me": 111,
      "be": 112,
      "ow": 113,
      "we": 114,
      "was": 115,
      "se": 116,
      "id": 117,
      "ld": 118,
      "hi": 119,
      "ro": 120,
      "ve": 121,
      "gh": 122,
      "wi": 123,
      "ac": 124,
      "that": 125,
      "no": 126,
      "ly": 127,
      "al": 128,
      "ch": 129,
      "all": 130,
      "ver": 131,
      "you": 132,
      "his": 133,
      "had": 134,
      "ut": 135,
      "li": 136,
      "ir": 137,
      "ay": 138,
      "The": 139,
      "for": 140,
      "ad": 141,
      "un": 142,
      "ri": 143,
      "ght": 144,
      "with": 145,
      "ould": 146,
      "so": 147,
      "ti": 148,
      "sa": 149,
      "oo": 150,
      "they": 151,
      "ent": 152,
      "up": 153,
      "ke": 154,
      "ag": 155,
      "ce": 156,
      "ho": 157,
      "were": 158,
      "out": 159,
      "oun": 160,
      "not": 161,
      "ur": 162,
      "co": 163,
      "our": 164,
      "am": 165,
      "ain": 166,
      "bo": 167,
      "mo": 168,
      "one": 169,
      "us": 170,
      "il": 171,
      "whi": 172,
      "ne": 173,
      "ter": 174,
      "pe": 175,
      "fe": 176,
      "red": 177,
      "ge": 178,
      "have": 179,
      "ard": 180,
      "go": 181,
      "said": 182,
      "ca": 183,
      "ther": 184,
      "ab": 185,
      "my": 186,
      "ong": 187,
      "them": 188,
      "which": 189,
      "rom": 190,
      "but": 191,
      "hat": 192,
      "de": 193,
      "ess": 194,
      "him": 195,
      "own": 196,
      "ck": 197,
      "um": 198,
      "are": 199,
      "ast": 200,
      "from": 201,
      "their": 202,
      "fo": 203,
      "ves": 204,
      "whe": 205,
      "sh": 206,
      "lo": 207,
      "po": 208,
      "ion": 209,
      "ack": 210,
      "could": 211,
      "if": 212,
      "ound": 213,
      "bl": 214,
      "ood": 215,
      "some": 216,
      "there": 217,
      "do": 218,
      "pl": 219,
      "ind": 220,
      "He": 221,
      "ure": 222,
      "way": 223,
      "any": 224,
      "now": 225,
      "gre": 226,
      "ap": 227,
      "end": 228,
      "ex": 229,
      "It": 230,
      "thing": 231,
      "et": 232,
      "Bil": 233,
      "Bilbo": 234,
      "by": 235,
      "fi": 236,
      "ous": 237,
      "very": 238,
      "this": 239,
      "fore": 240,
      "tr": 241,
      "!”": 242,
      "see": 243,
      "ough": 244,
      "ul": 245,
      "ust": 246,
      "ide": 247,
      "ight": 248,
      "qu": 249,
      "would": 250,
      "te": 251,
      "down": 252,
      "ted": 253,
      "king": 254,
      "ven": 255,
      "upon": 256,
      "hall": 257,
      "war": 258,
      "gr": 259,
      "der": 260,
      "can": 261,
      "br": 262,
      "ill": 263,
      "su": 264,
      "into": 265,
      "been": 266,
      "hed": 267,
      ".\"": 268,
      "like": 269,
      "more": 270,
      "ss": 271,
      "ate": 272,
      "ord": 273,
      "ped": 274,
      "ake": 275,
      "ked": 276,
      "ger": 277,
      "con": 278,
      "will": 279,
      "too": 280,
      "com": 281,
      "sp": 282,
      "lf": 283,
      "back": 284,
      "ep": 285,
      "what": 286,
      "who": 287,
      "--": 288,
      "tain": 289,
      "when": 290,
      "long": 291,
      "tre": 292,
      "ins": 293,
      "came": 294,
      "We": 295,
      "im": 296,
      "hor": 297,
      "great": 298,
      "loo": 299,
      "your": 300,
      "other": 301,
      "ers": 302,
      "ace": 303,
      "ic": 304,
      "ts": 305,
      ",”": 306,
      "tion": 307,
      "man": 308,
      "af": 309,
      "el": 310,
      "before": 311,
      "pre": 312,
      "time": 313,
      "op": 314,
      "But": 315,
      "ark": 316,
      "over": 317,
      "itt": 318,
      "dwar": 319,
      "dr": 320,
      "mer": 321,
      "nd": 322,
      "au": 323,
      "str": 324,
      "ought": 325,
      "ite": 326,
      ".”": 327,
      "day": 328,
      "low": 329,
      "again": 330,
      "come": 331,
      "cr": 332,
      "ant": 333,
      "They": 334,
      "ey": 335,
      "urn": 336,
      "about": 337,
      "ble": 338,
      "ci": 339,
      "bit": 340,
      "able": 341,
      "get": 342,
      "wo": 343,
      "ment": 344,
      "dis": 345,
      "than": 346,
      "ation": 347,
      ",\"": 348,
      "light": 349,
      "ever": 350,
      "only": 351,
      "est": 352,
      "thr": 353,
      "There": 354,
      "dwarves": 355,
      "ak": 356,
      "per": 357,
      "ward": 358,
      "ade": 359,
      "ountain": 360,
      "pro": 361,
      "ally": 362,
      "cl": 363,
      "ass": 364,
      "turn": 365,
      "self": 366,
      "hand": 367,
      "ink": 368,
      "men": 369,
      "should": 370,
      "ittle": 371,
      "ct": 372,
      "cre": 373,
      "good": 374,
      "little": 375,
      "So": 376,
      "ive": 377,
      "where": 378,
      "led": 379,
      "last": 380,
      "its": 381,
      "Thor": 382,
      "did": 383,
      "Thorin": 384,
      "med": 385,
      "off": 386,
      "under": 387,
      "after": 388,
      "ick": 389,
      "ty": 390,
      "enger": 391,
      "still": 392,
      "read": 393,
      "even": 394,
      "far": 395,
      "ance": 396,
      "head": 397,
      "ath": 398,
      "wor": 399,
      "ig": 400,
      "par": 401,
      "then": 402,
      "mb": 403,
      "most": 404,
      "know": 405,
      "ning": 406,
      "You": 407,
      "ence": 408,
      "Chall": 409,
      "che": 410,
      "dark": 411,
      "ried": 412,
      "got": 413,
      "Challenger": 414,
      "wat": 415,
      "rof": 416,
      "ans": 417,
      "In": 418,
      "?\"": 419,
      "made": 420,
      "ting": 421,
      "dd": 422,
      "gl": 423,
      "round": 424,
      "ine": 425,
      "gu": 426,
      "went": 427,
      "aw": 428,
      "how": 429,
      "right": 430,
      "And": 431,
      "ved": 432,
      "rofess": 433,
      "Then": 434,
      "through": 435,
      "side": 436,
      "ull": 437,
      "here": 438,
      "ave": 439,
      "may": 440,
      "well": 441,
      "fl": 442,
      "thought": 443,
      "say": 444,
      "ry": 445,
      "rofessor": 446,
      "while": 447,
      "ish": 448,
      "must": 449,
      "air": 450,
      "away": 451,
      "ful": 452,
      "wood": 453,
      "alf": 454,
      "fell": 455,
      "don": 456,
      "beg": 457,
      "What": 458,
      "hap": 459,
      "Professor": 460,
      "ft": 461,
      "less": 462,
      "spe": 463,
      "ort": 464,
      "Gand": 465,
      "has": 466,
      "sm": 467,
      "age": 468,
      "Gandalf": 469,
      "gobl": 470,
      "di": 471,
      "mu": 472,
      "night": 473,
      "No": 474,
      "ang": 475,
      "ummer": 476,
      "irst": 477,
      "door": 478,
      "ened": 479,
      "bbit": 480,
      "never": 481,
      "?”": 482,
      "ear": 483,
      "new": 484,
      "ach": 485,
      "many": 486,
      "two": 487,
      "sto": 488,
      "vo": 489,
      "Lord": 490,
      "old": 491,
      "vi": 492,
      "think": 493,
      "hobbit": 494,
      "found": 495,
      "hun": 496,
      "pt": 497,
      "ature": 498,
      "lee": 499,
      "eyes": 500,
      "much": 501,
      "cle": 502,
      "hind": 503,
      "just": 504,
      "ue": 505,
      "such": 506,
      "first": 507,
      "wards": 508,
      "use": 509,
      "dden": 510,
      "ather": 511,
      "car": 512,
      "des": 513,
      "won": 514,
      "word": 515,
      "res": 516,
      "these": 517,
      "Summer": 518,
      "though": 519,
      "ving": 520,
      "Summerlee": 521,
      "ring": 522,
      "bre": 523,
      "Go": 524,
      "coun": 525,
      "saw": 526,
      "pr": 527,
      "ten": 528,
      "ms": 529,
      "bet": 530,
      "That": 531,
      "mor": 532,
      "Mountain": 533,
      "cli": 534,
      "agon": 535,
      "hear": 536,
      "behind": 537,
      "agg": 538,
      "rock": 539,
      "act": 540,
      "ared": 541,
      "ows": 542,
      "trees": 543,
      "fri": 544,
      "might": 545,
      "heard": 546,
      "goblins": 547,
      "ies": 548,
      "Jo": 549,
      "shall": 550,
      "seemed": 551,
      "looked": 552,
      "!\"": 553,
      "water": 554,
      "friend": 555,
      "find": 556,
      "amp": 557,
      "every": 558,
      "land": 559,
      "ron": 560,
      "wa": 561,
      "cour": 562,
      "clo": 563,
      "ff": 564,
      "hel": 565,
      "ross": 566,
      "hn": 567,
      "left": 568,
      "les": 569,
      "sing": 570,
      "ated": 571,
      "John": 572,
      "abo": 573,
      "vent": 574,
      "place": 575,
      "sup": 576,
      "soon": 577,
      "poin": 578,
      "ity": 579,
      "yet": 580,
      "til": 581,
      "among": 582,
      "pped": 583,
      "az": 584,
      "ple": 585,
      "llow": 586,
      "nothing": 587,
      "fire": 588,
      "ls": 589,
      "uck": 590,
      "ise": 591,
      "tic": 592,
      "dragon": 593,
      "make": 594,
      "seen": 595,
      "above": 596,
      "Be": 597,
      "sha": 598,
      "full": 599,
      "lay": 600,
      "ank": 601,
      "river": 602,
      "feet": 603,
      "As": 604,
      "sudden": 605,
      "Mr": 606,
      "ef": 607,
      "tal": 608,
      "wh": 609,
      "ches": 610,
      "mountain": 611,
      "outh": 612,
      "ist": 613,
      "himself": 614,
      "rem": 615,
      "near": 616,
      "appe": 617,
      "open": 618,
      "call": 619,
      "face": 620,
      "ser": 621,
      "xt": 622,
      "stre": 623,
      "ling": 624,
      "lves": 625,
      "ness": 626,
      "rest": 627,
      "until": 628,
      "ready": 629,
      "bus": 630,
      "ice": 631,
      "thre": 632,
      "let": 633,
      "things": 634,
      "Now": 635,
      "sil": 636,
      "ction": 637,
      "once": 638,
      "star": 639,
      "something": 640,
      "ched": 641,
      "pass": 642,
      "ings": 643,
      "hard": 644,
      "put": 645,
      "aug": 646,
      "row": 647,
      "sent": 648,
      "creature": 649,
      "dre": 650,
      "stand": 651,
      "Well": 652,
      "aking": 653,
      "cried": 654,
      "orn": 655,
      "without": 656,
      "ale": 657,
      "gs": 658,
      "ng": 659,
      "ob": 660,
      "sho": 661,
      "going": 662,
      "deep": 663,
      "high": 664,
      "along": 665,
      "If": 666,
      "fall": 667,
      "try": 668,
      "tree": 669,
      "mar": 670,
      "sur": 671,
      "bro": 672,
      "iz": 673,
      "nor": 674,
      "ste": 675,
      "turned": 676,
      "om": 677,
      "sed": 678,
      "ili": 679,
      "ose": 680,
      "path": 681,
      "fic": 682,
      "look": 683,
      "This": 684,
      "ping": 685,
      "ange": 686,
      "ook": 687,
      "black": 688,
      "course": 689,
      "Bagg": 690,
      "dif": 691,
      "lt": 692,
      "ones": 693,
      "feel": 694,
      "began": 695,
      "Baggins": 696,
      "dan": 697,
      "sl": 698,
      "set": 699,
      "gold": 700,
      "mat": 701,
      "take": 702,
      "till": 703,
      "At": 704,
      "sk": 705,
      "sat": 706,
      "ground": 707,
      "mon": 708,
      "run": 709,
      "sit": 710,
      "stoo": 711,
      "moment": 712,
      "took": 713,
      "cas": 714,
      "mis": 715,
      "tun": 716,
      "tor": 717,
      "same": 718,
      "ople": 719,
      "small": 720,
      "Ind": 721,
      "cur": 722,
      "those": 723,
      "ird": 724,
      "used": 725,
      "tell": 726,
      "Indi": 727,
      "ame": 728,
      "chi": 729,
      "lar": 730,
      "lled": 731,
      "sun": 732,
      "llum": 733,
      "ways": 734,
      "forest": 735,
      "days": 736,
      "wonder": 737,
      "ious": 738,
      "att": 739,
      "dist": 740,
      "camp": 741,
      "give": 742,
      "ru": 743,
      "wall": 744,
      "ined": 745,
      "quite": 746,
      "cha": 747,
      "ible": 748,
      "ince": 749,
      "aster": 750,
      "across": 751,
      "ign": 752,
      "each": 753,
      "hu": 754,
      "pon": 755,
      "sc": 756,
      "asked": 757,
      "ary": 758,
      "stone": 759,
      "morning": 760,
      "spo": 761,
      "ud": 762,
      "ren": 763,
      "alin": 764,
      "ards": 765,
      "help": 766,
      "venture": 767,
      "Sm": 768,
      "ail": 769,
      "cted": 770,
      "wr": 771,
      "lls": 772,
      "people": 773,
      "poss": 774,
      "tered": 775,
      "elves": 776,
      "happ": 777,
      "mes": 778,
      "shad": 779,
      "ond": 780,
      "tow": 781,
      "life": 782,
      "dou": 783,
      "enough": 784,
      "young": 785,
      "lie": 786,
      "rible": 787,
      "comp": 788,
      "suddenly": 789,
      "On": 790,
      "aid": 791,
      "another": 792,
      "ished": 793,
      "bran": 794,
      "clear": 795,
      "Smaug": 796,
      "oud": 797,
      "ene": 798,
      "ush": 799,
      "friends": 800,
      "Th": 801,
      "bed": 802,
      "cer": 803,
      "ily": 804,
      "sound": 805,
      "edge": 806,
      "toge": 807,
      "half": 808,
      "ket": 809,
      "deed": 810,
      "ions": 811,
      "brought": 812,
      "together": 813,
      "fast": 814,
      "kn": 815,
      "ken": 816,
      "being": 817,
      "alone": 818,
      "av": 819,
      "ks": 820,
      "whole": 821,
      "Gollum": 822,
      "wait": 823,
      "gave": 824,
      "jo": 825,
      "ons": 826,
      "ween": 827,
      "ult": 828,
      "between": 829,
      "three": 830,
      "stood": 831,
      "mp": 832,
      "sure": 833,
      "slow": 834,
      "wind": 835,
      "reme": 836,
      "ering": 837,
      "also": 838,
      "lost": 839,
      "expe": 840,
      "doub": 841,
      "done": 842,
      "thin": 843,
      "really": 844,
      "few": 845,
      "Some": 846,
      "ront": 847,
      "gi": 848,
      "gone": 849,
      "mind": 850,
      "green": 851,
      "others": 852,
      "dire": 853,
      "Bo": 854,
      "cent": 855,
      "always": 856,
      "adventure": 857,
      "All": 858,
      "dy": 859,
      "foo": 860,
      "mit": 861,
      "hes": 862,
      "follow": 863,
      "coming": 864,
      "world": 865,
      "part": 866,
      "danger": 867,
      "since": 868,
      "aces": 869,
      "quick": 870,
      "hands": 871,
      "point": 872,
      "mountains": 873,
      "huge": 874,
      "For": 875,
      "dred": 876,
      "pi": 877,
      "idd": 878,
      "alley": 879,
      "hundred": 880,
      "cliff": 881,
      "bur": 882,
      "gg": 883,
      "je": 884,
      "sci": 885,
      "ens": 886,
      "top": 887,
      "towards": 888,
      "ars": 889,
      "already": 890,
      "hope": 891,
      "strange": 892,
      "mber": 893,
      "town": 894,
      "bar": 895,
      "estion": 896,
      "selves": 897,
      "ider": 898,
      "pose": 899,
      "exce": 900,
      "white": 901,
      "large": 902,
      "fle": 903,
      "tro": 904,
      "below": 905,
      "plate": 906,
      "ces": 907,
      "cri": 908,
      "knew": 909,
      "table": 910,
      "valley": 911,
      "qui": 912,
      "guess": 913,
      "voice": 914,
      "Balin": 915,
      "His": 916,
      "Ro": 917,
      "bird": 918,
      "ced": 919,
      "four": 920,
      "front": 921,
      "hur": 922,
      "hum": 923,
      "tin": 924,
      "ery": 925,
      "hen": 926,
      "wiz": 927,
      "ushed": 928,
      "cause": 929,
      "better": 930,
      "pleas": 931,
      "kind": 932,
      "enti": 933,
      "moon": 934,
      "against": 935,
      "tunne": 936,
      "plateau": 937,
      "eag": 938,
      "ered": 939,
      "her": 940,
      "lad": 941,
      "lake": 942,
      "ned": 943,
      "ome": 944,
      "ouse": 945,
      "ung": 946,
      "keep": 947,
      "cold": 948,
      "next": 949,
      "haps": 950,
      "passed": 951,
      "flo": 952,
      "min": 953,
      "leep": 954,
      "step": 955,
      "hold": 956,
      "Indians": 957,
      "To": 958,
      "fair": 959,
      "sn": 960,
      "inter": 961,
      "mean": 962,
      "vered": 963,
      "ute": 964,
      "bled": 965,
      "however": 966,
      "climb": 967,
      "Wh": 968,
      "ber": 969,
      "bes": 970,
      "pers": 971,
      "ash": 972,
      "assa": 973,
      "form": 974,
      "forward": 975,
      "iles": 976,
      "ular": 977,
      "words": 978,
      "Beorn": 979,
      "direction": 980,
      "When": 981,
      "sign": 982,
      "vis": 983,
      "arm": 984,
      "times": 985,
      "need": 986,
      "cond": 987,
      "press": 988,
      "strong": 989,
      "break": 990,
      "stream": 991,
      "doubt": 992,
      "South": 993,
      "big": 994,
      "wal": 995,
      "ask": 996,
      "ching": 997,
      "felt": 998,
      "question": 999,
      "imp": 1000,
      "looking": 1001,
      "preci": 1002,
      "itting": 1003,
      "matter": 1004,
      "certain": 1005,
      "wizard": 1006,
      "bank": 1007,
      "jour": 1008,
      "tri": 1009,
      "iness": 1010,
      "return": 1011,
      "least": 1012,
      "safe": 1013,
      "myself": 1014,
      "dead": 1015,
      "ended": 1016,
      "ears": 1017,
      "appeared": 1018,
      "called": 1019,
      "cu": 1020,
      "dro": 1021,
      "ev": 1022,
      "eat": 1023,
      "oc": 1024,
      "ori": 1025,
      "wild": 1026,
      "ained": 1027,
      "fear": 1028,
      "care": 1029,
      "chief": 1030,
      "known": 1031,
      "Wi": 1032,
      "she": 1033,
      "want": 1034,
      "sol": 1035,
      "body": 1036,
      "gry": 1037,
      "comfor": 1038,
      "getting": 1039,
      "mbur": 1040,
      "Not": 1041,
      "pris": 1042,
      "Bombur": 1043,
      "fter": 1044,
      "sort": 1045,
      "ye": 1046,
      "esca": 1047,
      "belie": 1048,
      "lying": 1049,
      "creatures": 1050,
      "After": 1051,
      "Bard": 1052,
      "aut": 1053,
      "bow": 1054,
      "best": 1055,
      "eas": 1056,
      "ran": 1057,
      "whis": 1058,
      "wide": 1059,
      "told": 1060,
      "both": 1061,
      "present": 1062,
      "How": 1063,
      "Lake": 1064,
      "fur": 1065,
      "fact": 1066,
      "sw": 1067,
      "sli": 1068,
      "song": 1069,
      "ually": 1070,
      "rep": 1071,
      "asure": 1072,
      "bey": 1073,
      "move": 1074,
      "shout": 1075,
      "horrible": 1076,
      "draw": 1077,
      "aken": 1078,
      "woods": 1079,
      "hardly": 1080,
      "ither": 1081,
      "line": 1082,
      "ner": 1083,
      "sir": 1084,
      "ught": 1085,
      "indeed": 1086,
      "arp": 1087,
      "legs": 1088,
      "because": 1089,
      "ached": 1090,
      "home": 1091,
      "ney": 1092,
      "cked": 1093,
      "show": 1094,
      "cir": 1095,
      "pes": 1096,
      "ub": 1097,
      "caught": 1098,
      "anything": 1099,
      "grew": 1100,
      "grow": 1101,
      "suppose": 1102,
      "diffic": 1103,
      "slowly": 1104,
      "person": 1105,
      "journey": 1106,
      "My": 1107,
      "eld": 1108,
      "ges": 1109,
      "lau": 1110,
      "nar": 1111,
      "pic": 1112,
      "ys": 1113,
      "anim": 1114,
      "real": 1115,
      "meet": 1116,
      "beard": 1117,
      "road": 1118,
      "cho": 1119,
      "char": 1120,
      "ump": 1121,
      "inside": 1122,
      "count": 1123,
      "ponies": 1124,
      "possible": 1125,
      "ape": 1126,
      "cess": 1127,
      "food": 1128,
      "hour": 1129,
      "rather": 1130,
      "van": 1131,
      "ago": 1132,
      "que": 1133,
      "country": 1134,
      "ize": 1135,
      "tunnel": 1136,
      "animal": 1137,
      "Fili": 1138,
      "athe": 1139,
      "house": 1140,
      "miles": 1141,
      "od": 1142,
      "slo": 1143,
      "sitting": 1144,
      "ense": 1145,
      "covered": 1146,
      "boat": 1147,
      "appear": 1148,
      "business": 1149,
      "chair": 1150,
      "El": 1151,
      "nat": 1152,
      "scr": 1153,
      "reas": 1154,
      "begin": 1155,
      "fully": 1156,
      "shot": 1157,
      "branches": 1158,
      "quiet": 1159,
      "believe": 1160,
      "beyond": 1161,
      "Al": 1162,
      "By": 1163,
      "Su": 1164,
      "fin": 1165,
      "fre": 1166,
      "name": 1167,
      "ris": 1168,
      "swi": 1169,
      "leave": 1170,
      "rope": 1171,
      "neare": 1172,
      "feren": 1173,
      "poc": 1174,
      "plain": 1175,
      "cannot": 1176,
      "treasure": 1177,
      "evening": 1178,
      "xton": 1179,
      "compan": 1180,
      "remember": 1181,
      "Roxton": 1182,
      "TH": 1183,
      "flow": 1184,
      "ged": 1185,
      "luck": 1186,
      "mag": 1187,
      "ror": 1188,
      "smo": 1189,
      "spl": 1190,
      "thick": 1191,
      "arms": 1192,
      "lea": 1193,
      "does": 1194,
      "plan": 1195,
      "work": 1196,
      "answ": 1197,
      "talk": 1198,
      "nearly": 1199,
      "distance": 1200,
      "Don": 1201,
      "One": 1202,
      "father": 1203,
      "kill": 1204,
      "wish": 1205,
      "ener": 1206,
      "ition": 1207,
      "coll": 1208,
      "filled": 1209,
      "opened": 1210,
      "guard": 1211,
      "rocks": 1212,
      "dream": 1213,
      "eneath": 1214,
      "Amer": 1215,
      "gri": 1216,
      "passa": 1217,
      "sword": 1218,
      "bear": 1219,
      "room": 1220,
      "hole": 1221,
      "whether": 1222,
      "short": 1223,
      "blue": 1224,
      "bring": 1225,
      "imag": 1226,
      "ical": 1227,
      "darkness": 1228,
      "fellow": 1229,
      "vol": 1230,
      "heart": 1231,
      "foot": 1232,
      "barre": 1233,
      "Ameri": 1234,
      "Come": 1235,
      "cross": 1236,
      "ile": 1237,
      "making": 1238,
      "ra": 1239,
      "shi": 1240,
      "sight": 1241,
      "sleep": 1242,
      "taken": 1243,
      "inte": 1244,
      "held": 1245,
      "lling": 1246,
      "stones": 1247,
      "ident": 1248,
      "aged": 1249,
      "conf": 1250,
      "longer": 1251,
      "dwarf": 1252,
      "cry": 1253,
      "ations": 1254,
      "heads": 1255,
      "lands": 1256,
      "silver": 1257,
      "attle": 1258,
      "floor": 1259,
      "beneath": 1260,
      "ew": 1261,
      "gro": 1262,
      "num": 1263,
      "pri": 1264,
      "sor": 1265,
      "ining": 1266,
      "rely": 1267,
      "orm": 1268,
      "lead": 1269,
      "almost": 1270,
      "ably": 1271,
      "eye": 1272,
      "close": 1273,
      "fright": 1274,
      "rain": 1275,
      "wand": 1276,
      "yes": 1277,
      "beast": 1278,
      "ides": 1279,
      "outside": 1280,
      "iled": 1281,
      "poor": 1282,
      "teen": 1283,
      "carried": 1284,
      "ized": 1285,
      "differen": 1286,
      "feeling": 1287,
      "interest": 1288,
      "dread": 1289,
      "ives": 1290,
      "lk": 1291,
      "late": 1292,
      "pick": 1293,
      "tall": 1294,
      "uff": 1295,
      "lived": 1296,
      "add": 1297,
      "within": 1298,
      "cons": 1299,
      "else": 1300,
      "understand": 1301,
      "carry": 1302,
      "why": 1303,
      "remark": 1304,
      "opening": 1305,
      "further": 1306,
      "answer": 1307,
      "Ar": 1308,
      "ER": 1309,
      "Even": 1310,
      "From": 1311,
      "Nor": 1312,
      "cat": 1313,
      "cut": 1314,
      "dri": 1315,
      "tent": 1316,
      "val": 1317,
      "eng": 1318,
      "enorm": 1319,
      "ited": 1320,
      "chance": 1321,
      "themselves": 1322,
      "dered": 1323,
      "apped": 1324,
      "ending": 1325,
      "exp": 1326,
      "grass": 1327,
      "peri": 1328,
      "speak": 1329,
      "precious": 1330,
      "reason": 1331,
      "enormous": 1332,
      "Let": 1333,
      "bad": 1334,
      "pack": 1335,
      "swe": 1336,
      "tw": 1337,
      "ert": 1338,
      "hair": 1339,
      "leap": 1340,
      "stant": 1341,
      "beaut": 1342,
      "Their": 1343,
      "caves": 1344,
      "exc": 1345,
      "true": 1346,
      "idea": 1347,
      "brid": 1348,
      "cially": 1349,
      "perhaps": 1350,
      "Soon": 1351,
      "goblin": 1352,
      "stopped": 1353,
      "view": 1354,
      "descri": 1355,
      "case": 1356,
      "spoke": 1357,
      "expect": 1358,
      "With": 1359,
      "),": 1360,
      "Fo": 1361,
      "gun": 1362,
      "gent": 1363,
      "gate": 1364,
      "hood": 1365,
      "pow": 1366,
      "pur": 1367,
      "years": 1368,
      "ater": 1369,
      "sever": 1370,
      "iders": 1371,
      "forgot": 1372,
      "kept": 1373,
      "ages": 1374,
      "fect": 1375,
      "cave": 1376,
      "Here": 1377,
      "tru": 1378,
      "trou": 1379,
      "shadow": 1380,
      "shadows": 1381,
      "expected": 1382,
      "adventures": 1383,
      "breakfast": 1384,
      "several": 1385,
      "Kili": 1386,
      "Malone": 1387,
      "Of": 1388,
      "bu": 1389,
      "hang": 1390,
      "ix": 1391,
      "ny": 1392,
      "none": 1393,
      "rang": 1394,
      "reached": 1395,
      "ating": 1396,
      "lear": 1397,
      "ster": 1398,
      "bered": 1399,
      "noise": 1400,
      "deal": 1401,
      "folk": 1402,
      "log": 1403,
      "bling": 1404,
      "five": 1405,
      "letter": 1406,
      "broken": 1407,
      "entific": 1408,
      "Why": 1409,
      "beside": 1410,
      "beginning": 1411,
      "Dori": 1412,
      "HA": 1413,
      "Ri": 1414,
      "Where": 1415,
      "cing": 1416,
      "fer": 1417,
      "gle": 1418,
      "lit": 1419,
      "mid": 1420,
      "mouth": 1421,
      "pin": 1422,
      "pat": 1423,
      "sme": 1424,
      "ual": 1425,
      "anted": 1426,
      "angry": 1427,
      "heav": 1428,
      "ised": 1429,
      "secre": 1430,
      "These": 1431,
      "kets": 1432,
      "wered": 1433,
      "iful": 1434,
      "spiders": 1435,
      "crack": 1436,
      "vice": 1437,
      "Gobl": 1438,
      "fallen": 1439,
      "sky": 1440,
      "scientific": 1441,
      "human": 1442,
      "prison": 1443,
      "Dale": 1444,
      "Master": 1445,
      "Will": 1446,
      "loud": 1447,
      "ns": 1448,
      "son": 1449,
      "ors": 1450,
      "bot": 1451,
      "umbled": 1452,
      "asty": 1453,
      "experi": 1454,
      "trun": 1455,
      "seem": 1456,
      "casion": 1457,
      "given": 1458,
      "iddle": 1459,
      "ject": 1460,
      "birds": 1461,
      "bright": 1462,
      "battle": 1463,
      "du": 1464,
      "ol": 1465,
      "order": 1466,
      "itself": 1467,
      "ames": 1468,
      "cap": 1469,
      "posit": 1470,
      "tra": 1471,
      "ments": 1472,
      "answered": 1473,
      "ddenly": 1474,
      "aze": 1475,
      "drew": 1476,
      "wonderful": 1477,
      "comfortable": 1478,
      "shouted": 1479,
      "Suddenly": 1480,
      "gleam": 1481,
      "heavy": 1482,
      "Very": 1483,
      "ald": 1484,
      "aim": 1485,
      "boo": 1486,
      "ele": 1487,
      "fam": 1488,
      "fif": 1489,
      "gure": 1490,
      "gener": 1491,
      "uri": 1492,
      "ative": 1493,
      "ashed": 1494,
      "often": 1495,
      "became": 1496,
      "lic": 1497,
      "col": 1498,
      "sharp": 1499,
      "figure": 1500,
      "sub": 1501,
      "ately": 1502,
      "spring": 1503,
      "pret": 1504,
      "wolves": 1505,
      "watch": 1506,
      "glar": 1507,
      "bushes": 1508,
      "followed": 1509,
      "athered": 1510,
      "beautiful": 1511,
      "Gre": 1512,
      "Good": 1513,
      "Our": 1514,
      "Who": 1515,
      "dare": 1516,
      "either": 1517,
      "gloo": 1518,
      "gathered": 1519,
      "laid": 1520,
      "tou": 1521,
      "rose": 1522,
      "account": 1523,
      "alive": 1524,
      "rifle": 1525,
      "amid": 1526,
      "iling": 1527,
      "ordin": 1528,
      "share": 1529,
      "silent": 1530,
      "obser": 1531,
      "certainly": 1532,
      "occasion": 1533,
      "laugh": 1534,
      "narrow": 1535,
      "different": 1536,
      "consider": 1537,
      "bridge": 1538,
      ").": 1539,
      "II": 1540,
      "Per": 1541,
      "ek": 1542,
      "em": 1543,
      "fr": 1544,
      "map": 1545,
      "past": 1546,
      "sion": 1547,
      "size": 1548,
      "ton": 1549,
      "reg": 1550,
      "attered": 1551,
      "art": 1552,
      "arch": 1553,
      "having": 1554,
      "second": 1555,
      "hill": 1556,
      "aint": 1557,
      "neck": 1558,
      "umped": 1559,
      "therefore": 1560,
      "places": 1561,
      "tee": 1562,
      "ices": 1563,
      "stra": 1564,
      "glad": 1565,
      "earth": 1566,
      "silence": 1567,
      "pie": 1568,
      "difficult": 1569,
      "dreadful": 1570,
      "secret": 1571,
      "En": 1572,
      "OR": 1573,
      "Yes": 1574,
      "cus": 1575,
      "ses": 1576,
      "ture": 1577,
      "thro": 1578,
      "stick": 1579,
      "wel": 1580,
      "ceed": 1581,
      "terrible": 1582,
      "dear": 1583,
      "lot": 1584,
      "exped": 1585,
      "fight": 1586,
      "tem": 1587,
      "likely": 1588,
      "contin": 1589,
      "claim": 1590,
      "worth": 1591,
      "parts": 1592,
      "news": 1593,
      "running": 1594,
      "Indian": 1595,
      "waiting": 1596,
      "dangerous": 1597,
      "except": 1598,
      "THE": 1599,
      "magic": 1600,
      "North": 1601,
      "Gate": 1602,
      "Mir": 1603,
      "bb": 1604,
      "cy": 1605,
      "fat": 1606,
      "hon": 1607,
      "iam": 1608,
      "laug": 1609,
      "ni": 1610,
      "nasty": 1611,
      "rad": 1612,
      "rows": 1613,
      "tled": 1614,
      "tried": 1615,
      "ured": 1616,
      "yed": 1617,
      "ants": 1618,
      "reach": 1619,
      "ates": 1620,
      "stay": 1621,
      "idence": 1622,
      "live": 1623,
      "forth": 1624,
      "und": 1625,
      "ghter": 1626,
      "save": 1627,
      "fier": 1628,
      "started": 1629,
      "monstr": 1630,
      "guessed": 1631,
      "escape": 1632,
      "songs": 1633,
      "swift": 1634,
      "explo": 1635,
      "trouble": 1636,
      "River": 1637,
      "laughed": 1638,
      ".)": 1639,
      "Mo": 1640,
      "burn": 1641,
      "cor": 1642,
      "elf": 1643,
      "emp": 1644,
      "fac": 1645,
      "gli": 1646,
      "ied": 1647,
      "ps": 1648,
      "pal": 1649,
      "pter": 1650,
      "rough": 1651,
      "race": 1652,
      "taking": 1653,
      "wings": 1654,
      "incl": 1655,
      "height": 1656,
      "meant": 1657,
      "alth": 1658,
      "liar": 1659,
      "shri": 1660,
      "love": 1661,
      "trave": 1662,
      "audi": 1663,
      "ledge": 1664,
      "doors": 1665,
      "pointed": 1666,
      "remain": 1667,
      "standing": 1668,
      "climbed": 1669,
      "slipped": 1670,
      "leaves": 1671,
      "passage": 1672,
      "William": 1673,
      "ordinary": 1674,
      "straight": 1675,
      ".'": 1676,
      "Bert": 1677,
      "Dain": 1678,
      "Glad": 1679,
      "Just": 1680,
      "King": 1681,
      "Qu": 1682,
      "ah": 1683,
      "fing": 1684,
      "fine": 1685,
      "flying": 1686,
      "ire": 1687,
      "kwood": 1688,
      "lan": 1689,
      "ler": 1690,
      "mark": 1691,
      "pale": 1692,
      "rushed": 1693,
      "six": 1694,
      "yards": 1695,
      "instant": 1696,
      "ref": 1697,
      "espe": 1698,
      "roar": 1699,
      "acty": 1700,
      "utes": 1701,
      "lies": 1702,
      "cover": 1703,
      "ourselves": 1704,
      "moved": 1705,
      "shining": 1706,
      "doing": 1707,
      "spir": 1708,
      "dry": 1709,
      "stru": 1710,
      "fellah": 1711,
      "spect": 1712,
      "hung": 1713,
      "single": 1714,
      "marked": 1715,
      "golden": 1716,
      "torches": 1717,
      "happened": 1718,
      "surely": 1719,
      "trolls": 1720,
      "easy": 1721,
      "circle": 1722,
      "odacty": 1723,
      "barrels": 1724,
      "forgotten": 1725,
      "position": 1726,
      "general": 1727,
      "Great": 1728,
      "Mirkwood": 1729,
      "pterodacty": 1730,
      "Gladys": 1731,
      "CHA": 1732,
      "IN": 1733,
      "West": 1734,
      "book": 1735,
      "dim": 1736,
      "pap": 1737,
      "tle": 1738,
      "ats": 1739,
      "hea": 1740,
      "isten": 1741,
      "stri": 1742,
      "met": 1743,
      "tive": 1744,
      "entr": 1745,
      "shut": 1746,
      "track": 1747,
      "trust": 1748,
      "comes": 1749,
      "party": 1750,
      "early": 1751,
      "rond": 1752,
      "talking": 1753,
      "stars": 1754,
      "happen": 1755,
      "eager": 1756,
      "steps": 1757,
      "nearer": 1758,
      "companions": 1759,
      "smoke": 1760,
      "learned": 1761,
      "botto": 1762,
      "fierce": 1763,
      "audience": 1764,
      "Ex": 1765,
      "Map": 1766,
      "Still": 1767,
      "Your": 1768,
      "fish": 1769,
      "faces": 1770,
      "gar": 1771,
      "leng": 1772,
      "master": 1773,
      "middle": 1774,
      "prom": 1775,
      "rup": 1776,
      "tted": 1777,
      "west": 1778,
      "zz": 1779,
      "inc": 1780,
      "aned": 1781,
      "reed": 1782,
      "ase": 1783,
      "isted": 1784,
      "leg": 1785,
      "roo": 1786,
      "rolled": 1787,
      "vel": 1788,
      "liked": 1789,
      "fortun": 1790,
      "admit": 1791,
      "absol": 1792,
      "dev": 1793,
      "grap": 1794,
      "partic": 1795,
      "guards": 1796,
      "desc": 1797,
      "closed": 1798,
      "supper": 1799,
      "walls": 1800,
      "branch": 1801,
      "science": 1802,
      "pleasant": 1803,
      "White": 1804,
      "dropped": 1805,
      "picture": 1806,
      "meeting": 1807,
      "pocket": 1808,
      "grim": 1809,
      "hanging": 1810,
      "prisoners": 1811,
      "expedition": 1812,
      "especially": 1813,
      "Maple": 1814,
      "absolute": 1815,
      "East": 1816,
      "Hill": 1817,
      "bound": 1818,
      "corn": 1819,
      "ez": 1820,
      "igh": 1821,
      "oes": 1822,
      "por": 1823,
      "pull": 1824,
      "raid": 1825,
      "sy": 1826,
      "twi": 1827,
      "tched": 1828,
      "wise": 1829,
      "thous": 1830,
      "rel": 1831,
      "asc": 1832,
      "tory": 1833,
      "orge": 1834,
      "stuck": 1835,
      "stud": 1836,
      "means": 1837,
      "acle": 1838,
      "unning": 1839,
      "unknown": 1840,
      "cei": 1841,
      "ambo": 1842,
      "tering": 1843,
      "grey": 1844,
      "appro": 1845,
      "express": 1846,
      "seems": 1847,
      "spider": 1848,
      "impossible": 1849,
      "tions": 1850,
      "crept": 1851,
      "aware": 1852,
      "story": 1853,
      "dragons": 1854,
      "Before": 1855,
      "shape": 1856,
      "remained": 1857,
      "north": 1858,
      "stead": 1859,
      "steep": 1860,
      "skin": 1861,
      "burglar": 1862,
      "hurried": 1863,
      "escaped": 1864,
      "Elrond": 1865,
      "gentle": 1866,
      "truth": 1867,
      "smell": 1868,
      "particular": 1869,
      "thousand": 1870,
      "Am": 1871,
      "Dr": 1872,
      "Lon": 1873,
      "Re": 1874,
      "Tom": 1875,
      "War": 1876,
      "Zambo": 1877,
      "ax": 1878,
      "echo": 1879,
      "gas": 1880,
      "gaz": 1881,
      "lin": 1882,
      "mut": 1883,
      "mad": 1884,
      "pho": 1885,
      "pushed": 1886,
      "squ": 1887,
      "sque": 1888,
      "tale": 1889,
      "var": 1890,
      "armed": 1891,
      "ided": 1892,
      "velo": 1893,
      "formed": 1894,
      "ool": 1895,
      "key": 1896,
      "loin": 1897,
      "sometimes": 1898,
      "doz": 1899,
      "play": 1900,
      "fires": 1901,
      "warm": 1902,
      "spite": 1903,
      "sprang": 1904,
      "trem": 1905,
      "merry": 1906,
      "lower": 1907,
      "discovered": 1908,
      "turning": 1909,
      "chest": 1910,
      "gling": 1911,
      "fles": 1912,
      "voices": 1913,
      "breed": 1914,
      "threw": 1915,
      "joy": 1916,
      "quickly": 1917,
      "walked": 1918,
      "curi": 1919,
      "yellow": 1920,
      "appearance": 1921,
      "Elven": 1922,
      "killed": 1923,
      "America": 1924,
      "power": 1925,
      "gloom": 1926,
      "Perhaps": 1927,
      "empty": 1928,
      "bottom": 1929,
      "length": 1930,
      "London": 1931,
      "Eag": 1932,
      "Gloin": 1933,
      "May": 1934,
      "Took": 1935,
      "cord": 1936,
      "ging": 1937,
      "listen": 1938,
      "main": 1939,
      "os": 1940,
      "pping": 1941,
      "rate": 1942,
      "sus": 1943,
      "sne": 1944,
      "south": 1945,
      "tail": 1946,
      "wished": 1947,
      "inking": 1948,
      "tori": 1949,
      "llent": 1950,
      "state": 1951,
      "memor": 1952,
      "become": 1953,
      "iding": 1954,
      "acter": 1955,
      "noti": 1956,
      "chang": 1957,
      "unless": 1958,
      "oolog": 1959,
      "ents": 1960,
      "amed": 1961,
      "pered": 1962,
      "dec": 1963,
      "delight": 1964,
      "death": 1965,
      "cking": 1966,
      "plans": 1967,
      "aps": 1968,
      "ously": 1969,
      "halls": 1970,
      "grand": 1971,
      "conv": 1972,
      "comple": 1973,
      "whom": 1974,
      "drink": 1975,
      "struck": 1976,
      "crow": 1977,
      "cient": 1978,
      "proceed": 1979,
      "cloud": 1980,
      "shoulder": 1981,
      "shoulders": 1982,
      "cture": 1983,
      "wenty": 1984,
      "hapter": 1985,
      "prise": 1986,
      "morrow": 1987,
      "actly": 1988,
      "actually": 1989,
      "courage": 1990,
      "service": 1991,
      "streng": 1992,
      "dress": 1993,
      "shore": 1994,
      "attack": 1995,
      "happy": 1996,
      "remem": 1997,
      "thinking": 1998,
      "fool": 1999
    },
    "merges": [
      [
        "t",
        "h"
      ],
      [
        "th",
        "e"
      ],
      [
        "i",
        "n"
      ],
      [
        "a",
        "n"
      ],
      [
        "r",
        "e"
      ],
      [
        "o",
        "u"
      ],
      [
        "an",
        "d"
      ],
      [
        "o",
        "n"
      ],
      [
        "e",
        "r"
      ],
      [
        "a",
        "t"
      ],
      [
        "h",
        "e"
      ],
      [
        "a",
        "s"
      ],
      [
        "e",
        "d"
      ],
      [
        "e",
        "n"
      ],
      [
        "o",
        "f"
      ],
      [
        "t",
        "o"
      ],
      [
        "in",
        "g"
      ],
      [
        "o",
        "r"
      ],
      [
        "l",
        "l"
      ],
      [
        "i",
        "s"
      ],
      [
        "a",
        "r"
      ],
      [
        "e",
        "s"
      ],
      [
        "i",
        "t"
      ],
      [
        "h",
        "a"
      ],
      [
        "l",
        "e"
      ],
      [
        "s",
        "t"
      ],
      [
        "m",
        "e"
      ],
      [
        "b",
        "e"
      ],
      [
        "o",
        "w"
      ],
      [
        "w",
        "e"
      ],
      [
        "w",
        "as"
      ],
      [
        "s",
        "e"
      ],
      [
        "i",
        "d"
      ],
      [
        "l",
        "d"
      ],
      [
        "h",
        "i"
      ],
      [
        "r",
        "o"
      ],
      [
        "v",
        "e"
      ],
      [
        "g",
        "h"
      ],
      [
        "w",
        "i"
      ],
      [
        "a",
        "c"
      ],
      [
        "th",
        "at"
      ],
      [
        "n",
        "o"
      ],
      [
        "l",
        "y"
      ],
      [
        "a",
        "l"
      ],
      [
        "c",
        "h"
      ],
      [
        "a",
        "ll"
      ],
      [
        "v",
        "er"
      ],
      [
        "y",
        "ou"
      ],
      [
        "h",
        "is"
      ],
      [
        "ha",
        "d"
      ],
      [
        "u",
        "t"
      ],
      [
        "l",
        "i"
      ],
      [
        "i",
        "r"
      ],
      [
        "a",
        "y"
      ],
      [
        "T",
        "he"
      ],
      [
        "f",
        "or"
      ],
      [
        "a",
        "d"
      ],
      [
        "u",
        "n"
      ],
      [
        "r",
        "i"
      ],
      [
        "gh",
        "t"
      ],
      [
        "wi",
        "th"
      ],
      [
        "ou",
        "ld"
      ],
      [
        "s",
        "o"
      ],
      [
        "t",
        "i"
      ],
      [
        "s",
        "a"
      ],
      [
        "o",
        "o"
      ],
      [
        "the",
        "y"
      ],
      [
        "en",
        "t"
      ],
      [
        "u",
        "p"
      ],
      [
        "k",
        "e"
      ],
      [
        "a",
        "g"
      ],
      [
        "c",
        "e"
      ],
      [
        "h",
        "o"
      ],
      [
        "we",
        "re"
      ],
      [
        "ou",
        "t"
      ],
      [
        "ou",
        "n"
      ],
      [
        "no",
        "t"
      ],
      [
        "u",
        "r"
      ],
      [
        "c",
        "o"
      ],
      [
        "ou",
        "r"
      ],
      [
        "a",
        "m"
      ],
      [
        "a",
        "in"
      ],
      [
        "b",
        "o"
      ],
      [
        "m",
        "o"
      ],
      [
        "on",
        "e"
      ],
      [
        "u",
        "s"
      ],
      [
        "i",
        "l"
      ],
      [
        "w",
        "hi"
      ],
      [
        "n",
        "e"
      ],
      [
        "t",
        "er"
      ],
      [
        "p",
        "e"
      ],
      [
        "f",
        "e"
      ],
      [
        "re",
        "d"
      ],
      [
        "g",
        "e"
      ],
      [
        "ha",
        "ve"
      ],
      [
        "ar",
        "d"
      ],
      [
        "g",
        "o"
      ],
      [
        "sa",
        "id"
      ],
      [
        "c",
        "a"
      ],
      [
        "the",
        "r"
      ],
      [
        "a",
        "b"
      ],
      [
        "m",
        "y"
      ],
      [
        "on",
        "g"
      ],
      [
        "the",
        "m"
      ],
      [
        "whi",
        "ch"
      ],
      [
        "ro",
        "m"
      ],
      [
        "b",
        "ut"
      ],
      [
        "h",
        "at"
      ],
      [
        "d",
        "e"
      ],
      [
        "es",
        "s"
      ],
      [
        "hi",
        "m"
      ],
      [
        "ow",
        "n"
      ],
      [
        "c",
        "k"
      ],
      [
        "u",
        "m"
      ],
      [
        "a",
        "re"
      ],
      [
        "as",
        "t"
      ],
      [
        "f",
        "rom"
      ],
      [
        "the",
        "ir"
      ],
      [
        "f",
        "o"
      ],
      [
        "v",
        "es"
      ],
      [
        "w",
        "he"
      ],
      [
        "s",
        "h"
      ],
      [
        "l",
        "o"
      ],
      [
        "p",
        "o"
      ],
      [
        "i",
        "on"
      ],
      [
        "ac",
        "k"
      ],
      [
        "c",
        "ould"
      ],
      [
        "i",
        "f"
      ],
      [
        "oun",
        "d"
      ],
      [
        "b",
        "l"
      ],
      [
        "oo",
        "d"
      ],
      [
        "so",
        "me"
      ],
      [
        "the",
        "re"
      ],
      [
        "d",
        "o"
      ],
      [
        "p",
        "l"
      ],
      [
        "in",
        "d"
      ],
      [
        "H",
        "e"
      ],
      [
        "u",
        "re"
      ],
      [
        "w",
        "ay"
      ],
      [
        "an",
        "y"
      ],
      [
        "n",
        "ow"
      ],
      [
        "g",
        "re"
      ],
      [
        "a",
        "p"
      ],
      [
        "en",
        "d"
      ],
      [
        "e",
        "x"
      ],
      [
        "I",
        "t"
      ],
      [
        "th",
        "ing"
      ],
      [
        "e",
        "t"
      ],
      [
        "B",
        "il"
      ],
      [
        "Bil",
        "bo"
      ],
      [
        "b",
        "y"
      ],
      [
        "f",
        "i"
      ],
      [
        "ou",
        "s"
      ],
      [
        "ver",
        "y"
      ],
      [
        "th",
        "is"
      ],
      [
        "fo",
        "re"
      ],
      [
        "t",
        "r"
      ],
      [
        "!",
        "”"
      ],
      [
        "se",
        "e"
      ],
      [
        "ou",
        "gh"
      ],
      [
        "u",
        "l"
      ],
      [
        "u",
        "st"
      ],
      [
        "id",
        "e"
      ],
      [
        "i",
        "ght"
      ],
      [
        "q",
        "u"
      ],
      [
        "w",
        "ould"
      ],
      [
        "t",
        "e"
      ],
      [
        "d",
        "own"
      ],
      [
        "t",
        "ed"
      ],
      [
        "k",
        "ing"
      ],
      [
        "v",
        "en"
      ],
      [
        "up",
        "on"
      ],
      [
        "ha",
        "ll"
      ],
      [
        "w",
        "ar"
      ],
      [
        "g",
        "r"
      ],
      [
        "d",
        "er"
      ],
      [
        "c",
        "an"
      ],
      [
        "b",
        "r"
      ],
      [
        "i",
        "ll"
      ],
      [
        "s",
        "u"
      ],
      [
        "in",
        "to"
      ],
      [
        "be",
        "en"
      ],
      [
        "he",
        "d"
      ],
      [
        ".",
        "\""
      ],
      [
        "li",
        "ke"
      ],
      [
        "mo",
        "re"
      ],
      [
        "s",
        "s"
      ],
      [
        "at",
        "e"
      ],
      [
        "or",
        "d"
      ],
      [
        "p",
        "ed"
      ],
      [
        "a",
        "ke"
      ],
      [
        "k",
        "ed"
      ],
      [
        "g",
        "er"
      ],
      [
        "c",
        "on"
      ],
      [
        "wi",
        "ll"
      ],
      [
        "to",
        "o"
      ],
      [
        "co",
        "m"
      ],
      [
        "s",
        "p"
      ],
      [
        "l",
        "f"
      ],
      [
        "b",
        "ack"
      ],
      [
        "e",
        "p"
      ],
      [
        "w",
        "hat"
      ],
      [
        "w",
        "ho"
      ],
      [
        "-",
        "-"
      ],
      [
        "t",
        "ain"
      ],
      [
        "whe",
        "n"
      ],
      [
        "l",
        "ong"
      ],
      [
        "t",
        "re"
      ],
      [
        "in",
        "s"
      ],
      [
        "ca",
        "me"
      ],
      [
        "W",
        "e"
      ],
      [
        "i",
        "m"
      ],
      [
        "h",
        "or"
      ],
      [
        "gre",
        "at"
      ],
      [
        "l",
        "oo"
      ],
      [
        "you",
        "r"
      ],
      [
        "o",
        "ther"
      ],
      [
        "er",
        "s"
      ],
      [
        "ac",
        "e"
      ],
      [
        "i",
        "c"
      ],
      [
        "t",
        "s"
      ],
      [
        ",",
        "”"
      ],
      [
        "ti",
        "on"
      ],
      [
        "m",
        "an"
      ],
      [
        "a",
        "f"
      ],
      [
        "e",
        "l"
      ],
      [
        "be",
        "fore"
      ],
      [
        "p",
        "re"
      ],
      [
        "ti",
        "me"
      ],
      [
        "o",
        "p"
      ],
      [
        "B",
        "ut"
      ],
      [
        "ar",
        "k"
      ],
      [
        "o",
        "ver"
      ],
      [
        "it",
        "t"
      ],
      [
        "d",
        "war"
      ],
      [
        "d",
        "r"
      ],
      [
        "m",
        "er"
      ],
      [
        "n",
        "d"
      ],
      [
        "a",
        "u"
      ],
      [
        "st",
        "r"
      ],
      [
        "ou",
        "ght"
      ],
      [
        "it",
        "e"
      ],
      [
        ".",
        "”"
      ],
      [
        "d",
        "ay"
      ],
      [
        "l",
        "ow"
      ],
      [
        "ag",
        "ain"
      ],
      [
        "co",
        "me"
      ],
      [
        "c",
        "r"
      ],
      [
        "an",
        "t"
      ],
      [
        "The",
        "y"
      ],
      [
        "e",
        "y"
      ],
      [
        "ur",
        "n"
      ],
      [
        "ab",
        "out"
      ],
      [
        "b",
        "le"
      ],
      [
        "c",
        "i"
      ],
      [
        "b",
        "it"
      ],
      [
        "ab",
        "le"
      ],
      [
        "ge",
        "t"
      ],
      [
        "w",
        "o"
      ],
      [
        "m",
        "ent"
      ],
      [
        "d",
        "is"
      ],
      [
        "th",
        "an"
      ],
      [
        "at",
        "ion"
      ],
      [
        ",",
        "\""
      ],
      [
        "li",
        "ght"
      ],
      [
        "e",
        "ver"
      ],
      [
        "on",
        "ly"
      ],
      [
        "es",
        "t"
      ],
      [
        "th",
        "r"
      ],
      [
        "The",
        "re"
      ],
      [
        "dwar",
        "ves"
      ],
      [
        "a",
        "k"
      ],
      [
        "p",
        "er"
      ],
      [
        "w",
        "ard"
      ],
      [
        "ad",
        "e"
      ],
      [
        "oun",
        "tain"
      ],
      [
        "p",
        "ro"
      ],
      [
        "all",
        "y"
      ],
      [
        "c",
        "l"
      ],
      [
        "as",
        "s"
      ],
      [
        "t",
        "urn"
      ],
      [
        "se",
        "lf"
      ],
      [
        "h",
        "and"
      ],
      [
        "in",
        "k"
      ],
      [
        "m",
        "en"
      ],
      [
        "sh",
        "ould"
      ],
      [
        "itt",
        "le"
      ],
      [
        "c",
        "t"
      ],
      [
        "c",
        "re"
      ],
      [
        "g",
        "ood"
      ],
      [
        "l",
        "ittle"
      ],
      [
        "S",
        "o"
      ],
      [
        "i",
        "ve"
      ],
      [
        "whe",
        "re"
      ],
      [
        "l",
        "ed"
      ],
      [
        "l",
        "ast"
      ],
      [
        "it",
        "s"
      ],
      [
        "T",
        "hor"
      ],
      [
        "d",
        "id"
      ],
      [
        "Thor",
        "in"
      ],
      [
        "m",
        "ed"
      ],
      [
        "of",
        "f"
      ],
      [
        "un",
        "der"
      ],
      [
        "af",
        "ter"
      ],
      [
        "i",
        "ck"
      ],
      [
        "t",
        "y"
      ],
      [
        "en",
        "ger"
      ],
      [
        "st",
        "ill"
      ],
      [
        "re",
        "ad"
      ],
      [
        "e",
        "ven"
      ],
      [
        "f",
        "ar"
      ],
      [
        "an",
        "ce"
      ],
      [
        "he",
        "ad"
      ],
      [
        "a",
        "th"
      ],
      [
        "w",
        "or"
      ],
      [
        "i",
        "g"
      ],
      [
        "p",
        "ar"
      ],
      [
        "the",
        "n"
      ],
      [
        "m",
        "b"
      ],
      [
        "mo",
        "st"
      ],
      [
        "k",
        "now"
      ],
      [
        "n",
        "ing"
      ],
      [
        "Y",
        "ou"
      ],
      [
        "en",
        "ce"
      ],
      [
        "C",
        "hall"
      ],
      [
        "c",
        "he"
      ],
      [
        "d",
        "ark"
      ],
      [
        "ri",
        "ed"
      ],
      [
        "go",
        "t"
      ],
      [
        "Chall",
        "enger"
      ],
      [
        "w",
        "at"
      ],
      [
        "r",
        "of"
      ],
      [
        "an",
        "s"
      ],
      [
        "I",
        "n"
      ],
      [
        "?",
        "\""
      ],
      [
        "m",
        "ade"
      ],
      [
        "t",
        "ing"
      ],
      [
        "d",
        "d"
      ],
      [
        "g",
        "l"
      ],
      [
        "r",
        "ound"
      ],
      [
        "in",
        "e"
      ],
      [
        "g",
        "u"
      ],
      [
        "w",
        "ent"
      ],
      [
        "a",
        "w"
      ],
      [
        "h",
        "ow"
      ],
      [
        "ri",
        "ght"
      ],
      [
        "A",
        "nd"
      ],
      [
        "v",
        "ed"
      ],
      [
        "rof",
        "ess"
      ],
      [
        "The",
        "n"
      ],
      [
        "thr",
        "ough"
      ],
      [
        "s",
        "ide"
      ],
      [
        "u",
        "ll"
      ],
      [
        "he",
        "re"
      ],
      [
        "a",
        "ve"
      ],
      [
        "m",
        "ay"
      ],
      [
        "we",
        "ll"
      ],
      [
        "f",
        "l"
      ],
      [
        "th",
        "ought"
      ],
      [
        "s",
        "ay"
      ],
      [
        "r",
        "y"
      ],
      [
        "rofess",
        "or"
      ],
      [
        "whi",
        "le"
      ],
      [
        "is",
        "h"
      ],
      [
        "m",
        "ust"
      ],
      [
        "a",
        "ir"
      ],
      [
        "a",
        "way"
      ],
      [
        "f",
        "ul"
      ],
      [
        "w",
        "ood"
      ],
      [
        "al",
        "f"
      ],
      [
        "fe",
        "ll"
      ],
      [
        "d",
        "on"
      ],
      [
        "be",
        "g"
      ],
      [
        "W",
        "hat"
      ],
      [
        "ha",
        "p"
      ],
      [
        "P",
        "rofessor"
      ],
      [
        "f",
        "t"
      ],
      [
        "l",
        "ess"
      ],
      [
        "s",
        "pe"
      ],
      [
        "or",
        "t"
      ],
      [
        "G",
        "and"
      ],
      [
        "h",
        "as"
      ],
      [
        "s",
        "m"
      ],
      [
        "ag",
        "e"
      ],
      [
        "Gand",
        "alf"
      ],
      [
        "go",
        "bl"
      ],
      [
        "d",
        "i"
      ],
      [
        "m",
        "u"
      ],
      [
        "n",
        "ight"
      ],
      [
        "N",
        "o"
      ],
      [
        "an",
        "g"
      ],
      [
        "um",
        "mer"
      ],
      [
        "ir",
        "st"
      ],
      [
        "do",
        "or"
      ],
      [
        "en",
        "ed"
      ],
      [
        "b",
        "bit"
      ],
      [
        "ne",
        "ver"
      ],
      [
        "?",
        "”"
      ],
      [
        "e",
        "ar"
      ],
      [
        "ne",
        "w"
      ],
      [
        "ac",
        "h"
      ],
      [
        "m",
        "any"
      ],
      [
        "t",
        "wo"
      ],
      [
        "s",
        "to"
      ],
      [
        "v",
        "o"
      ],
      [
        "L",
        "ord"
      ],
      [
        "o",
        "ld"
      ],
      [
        "v",
        "i"
      ],
      [
        "th",
        "ink"
      ],
      [
        "ho",
        "bbit"
      ],
      [
        "f",
        "ound"
      ],
      [
        "h",
        "un"
      ],
      [
        "p",
        "t"
      ],
      [
        "at",
        "ure"
      ],
      [
        "le",
        "e"
      ],
      [
        "ey",
        "es"
      ],
      [
        "mu",
        "ch"
      ],
      [
        "c",
        "le"
      ],
      [
        "h",
        "ind"
      ],
      [
        "j",
        "ust"
      ],
      [
        "u",
        "e"
      ],
      [
        "su",
        "ch"
      ],
      [
        "f",
        "irst"
      ],
      [
        "ward",
        "s"
      ],
      [
        "u",
        "se"
      ],
      [
        "dd",
        "en"
      ],
      [
        "a",
        "ther"
      ],
      [
        "c",
        "ar"
      ],
      [
        "d",
        "es"
      ],
      [
        "w",
        "on"
      ],
      [
        "w",
        "ord"
      ],
      [
        "re",
        "s"
      ],
      [
        "the",
        "se"
      ],
      [
        "S",
        "ummer"
      ],
      [
        "th",
        "ough"
      ],
      [
        "v",
        "ing"
      ],
      [
        "Summer",
        "lee"
      ],
      [
        "r",
        "ing"
      ],
      [
        "b",
        "re"
      ],
      [
        "G",
        "o"
      ],
      [
        "c",
        "oun"
      ],
      [
        "sa",
        "w"
      ],
      [
        "p",
        "r"
      ],
      [
        "t",
        "en"
      ],
      [
        "m",
        "s"
      ],
      [
        "be",
        "t"
      ],
      [
        "T",
        "hat"
      ],
      [
        "m",
        "or"
      ],
      [
        "M",
        "ountain"
      ],
      [
        "c",
        "li"
      ],
      [
        "ag",
        "on"
      ],
      [
        "he",
        "ar"
      ],
      [
        "be",
        "hind"
      ],
      [
        "ag",
        "g"
      ],
      [
        "ro",
        "ck"
      ],
      [
        "ac",
        "t"
      ],
      [
        "a",
        "red"
      ],
      [
        "ow",
        "s"
      ],
      [
        "tre",
        "es"
      ],
      [
        "f",
        "ri"
      ],
      [
        "m",
        "ight"
      ],
      [
        "he",
        "ard"
      ],
      [
        "gobl",
        "ins"
      ],
      [
        "i",
        "es"
      ],
      [
        "J",
        "o"
      ],
      [
        "s",
        "hall"
      ],
      [
        "see",
        "med"
      ],
      [
        "loo",
        "ked"
      ],
      [
        "!",
        "\""
      ],
      [
        "wat",
        "er"
      ],
      [
        "fri",
        "end"
      ],
      [
        "f",
        "ind"
      ],
      [
        "am",
        "p"
      ],
      [
        "e",
        "very"
      ],
      [
        "l",
        "and"
      ],
      [
        "r",
        "on"
      ],
      [
        "w",
        "a"
      ],
      [
        "c",
        "our"
      ],
      [
        "c",
        "lo"
      ],
      [
        "f",
        "f"
      ],
      [
        "he",
        "l"
      ],
      [
        "ro",
        "ss"
      ],
      [
        "h",
        "n"
      ],
      [
        "le",
        "ft"
      ],
      [
        "l",
        "es"
      ],
      [
        "s",
        "ing"
      ],
      [
        "at",
        "ed"
      ],
      [
        "Jo",
        "hn"
      ],
      [
        "a",
        "bo"
      ],
      [
        "v",
        "ent"
      ],
      [
        "pl",
        "ace"
      ],
      [
        "s",
        "up"
      ],
      [
        "so",
        "on"
      ],
      [
        "po",
        "in"
      ],
      [
        "it",
        "y"
      ],
      [
        "y",
        "et"
      ],
      [
        "ti",
        "l"
      ],
      [
        "am",
        "ong"
      ],
      [
        "p",
        "ped"
      ],
      [
        "a",
        "z"
      ],
      [
        "p",
        "le"
      ],
      [
        "ll",
        "ow"
      ],
      [
        "no",
        "thing"
      ],
      [
        "fi",
        "re"
      ],
      [
        "l",
        "s"
      ],
      [
        "u",
        "ck"
      ],
      [
        "is",
        "e"
      ],
      [
        "ti",
        "c"
      ],
      [
        "dr",
        "agon"
      ],
      [
        "m",
        "ake"
      ],
      [
        "se",
        "en"
      ],
      [
        "abo",
        "ve"
      ],
      [
        "B",
        "e"
      ],
      [
        "s",
        "ha"
      ],
      [
        "f",
        "ull"
      ],
      [
        "l",
        "ay"
      ],
      [
        "an",
        "k"
      ],
      [
        "ri",
        "ver"
      ],
      [
        "fe",
        "et"
      ],
      [
        "A",
        "s"
      ],
      [
        "su",
        "dden"
      ],
      [
        "M",
        "r"
      ],
      [
        "e",
        "f"
      ],
      [
        "t",
        "al"
      ],
      [
        "w",
        "h"
      ],
      [
        "che",
        "s"
      ],
      [
        "m",
        "ountain"
      ],
      [
        "ou",
        "th"
      ],
      [
        "is",
        "t"
      ],
      [
        "him",
        "self"
      ],
      [
        "re",
        "m"
      ],
      [
        "ne",
        "ar"
      ],
      [
        "ap",
        "pe"
      ],
      [
        "op",
        "en"
      ],
      [
        "c",
        "all"
      ],
      [
        "f",
        "ace"
      ],
      [
        "s",
        "er"
      ],
      [
        "x",
        "t"
      ],
      [
        "st",
        "re"
      ],
      [
        "l",
        "ing"
      ],
      [
        "l",
        "ves"
      ],
      [
        "n",
        "ess"
      ],
      [
        "re",
        "st"
      ],
      [
        "un",
        "til"
      ],
      [
        "read",
        "y"
      ],
      [
        "b",
        "us"
      ],
      [
        "i",
        "ce"
      ],
      [
        "th",
        "re"
      ],
      [
        "le",
        "t"
      ],
      [
        "thing",
        "s"
      ],
      [
        "N",
        "ow"
      ],
      [
        "s",
        "il"
      ],
      [
        "c",
        "tion"
      ],
      [
        "on",
        "ce"
      ],
      [
        "st",
        "ar"
      ],
      [
        "some",
        "thing"
      ],
      [
        "c",
        "hed"
      ],
      [
        "p",
        "ass"
      ],
      [
        "ing",
        "s"
      ],
      [
        "h",
        "ard"
      ],
      [
        "p",
        "ut"
      ],
      [
        "au",
        "g"
      ],
      [
        "r",
        "ow"
      ],
      [
        "s",
        "ent"
      ],
      [
        "cre",
        "ature"
      ],
      [
        "d",
        "re"
      ],
      [
        "st",
        "and"
      ],
      [
        "We",
        "ll"
      ],
      [
        "a",
        "king"
      ],
      [
        "c",
        "ried"
      ],
      [
        "or",
        "n"
      ],
      [
        "with",
        "out"
      ],
      [
        "a",
        "le"
      ],
      [
        "g",
        "s"
      ],
      [
        "n",
        "g"
      ],
      [
        "o",
        "b"
      ],
      [
        "s",
        "ho"
      ],
      [
        "go",
        "ing"
      ],
      [
        "de",
        "ep"
      ],
      [
        "hi",
        "gh"
      ],
      [
        "al",
        "ong"
      ],
      [
        "I",
        "f"
      ],
      [
        "f",
        "all"
      ],
      [
        "tr",
        "y"
      ],
      [
        "tre",
        "e"
      ],
      [
        "m",
        "ar"
      ],
      [
        "s",
        "ur"
      ],
      [
        "b",
        "ro"
      ],
      [
        "i",
        "z"
      ],
      [
        "n",
        "or"
      ],
      [
        "st",
        "e"
      ],
      [
        "turn",
        "ed"
      ],
      [
        "o",
        "m"
      ],
      [
        "s",
        "ed"
      ],
      [
        "i",
        "li"
      ],
      [
        "o",
        "se"
      ],
      [
        "p",
        "ath"
      ],
      [
        "fi",
        "c"
      ],
      [
        "loo",
        "k"
      ],
      [
        "T",
        "his"
      ],
      [
        "p",
        "ing"
      ],
      [
        "an",
        "ge"
      ],
      [
        "oo",
        "k"
      ],
      [
        "bl",
        "ack"
      ],
      [
        "cour",
        "se"
      ],
      [
        "B",
        "agg"
      ],
      [
        "d",
        "if"
      ],
      [
        "l",
        "t"
      ],
      [
        "on",
        "es"
      ],
      [
        "fe",
        "el"
      ],
      [
        "beg",
        "an"
      ],
      [
        "Bagg",
        "ins"
      ],
      [
        "d",
        "an"
      ],
      [
        "s",
        "l"
      ],
      [
        "se",
        "t"
      ],
      [
        "go",
        "ld"
      ],
      [
        "m",
        "at"
      ],
      [
        "t",
        "ake"
      ],
      [
        "ti",
        "ll"
      ],
      [
        "A",
        "t"
      ],
      [
        "s",
        "k"
      ],
      [
        "s",
        "at"
      ],
      [
        "gr",
        "ound"
      ],
      [
        "m",
        "on"
      ],
      [
        "r",
        "un"
      ],
      [
        "s",
        "it"
      ],
      [
        "s",
        "too"
      ],
      [
        "mo",
        "ment"
      ],
      [
        "too",
        "k"
      ],
      [
        "c",
        "as"
      ],
      [
        "m",
        "is"
      ],
      [
        "t",
        "un"
      ],
      [
        "to",
        "r"
      ],
      [
        "sa",
        "me"
      ],
      [
        "op",
        "le"
      ],
      [
        "sm",
        "all"
      ],
      [
        "I",
        "nd"
      ],
      [
        "c",
        "ur"
      ],
      [
        "th",
        "ose"
      ],
      [
        "ir",
        "d"
      ],
      [
        "us",
        "ed"
      ],
      [
        "te",
        "ll"
      ],
      [
        "Ind",
        "i"
      ],
      [
        "a",
        "me"
      ],
      [
        "c",
        "hi"
      ],
      [
        "l",
        "ar"
      ],
      [
        "ll",
        "ed"
      ],
      [
        "s",
        "un"
      ],
      [
        "ll",
        "um"
      ],
      [
        "way",
        "s"
      ],
      [
        "fore",
        "st"
      ],
      [
        "day",
        "s"
      ],
      [
        "won",
        "der"
      ],
      [
        "i",
        "ous"
      ],
      [
        "at",
        "t"
      ],
      [
        "dis",
        "t"
      ],
      [
        "c",
        "amp"
      ],
      [
        "g",
        "ive"
      ],
      [
        "r",
        "u"
      ],
      [
        "w",
        "all"
      ],
      [
        "in",
        "ed"
      ],
      [
        "qu",
        "ite"
      ],
      [
        "c",
        "ha"
      ],
      [
        "i",
        "ble"
      ],
      [
        "in",
        "ce"
      ],
      [
        "as",
        "ter"
      ],
      [
        "ac",
        "ross"
      ],
      [
        "ig",
        "n"
      ],
      [
        "e",
        "ach"
      ],
      [
        "h",
        "u"
      ],
      [
        "p",
        "on"
      ],
      [
        "s",
        "c"
      ],
      [
        "as",
        "ked"
      ],
      [
        "ar",
        "y"
      ],
      [
        "st",
        "one"
      ],
      [
        "mor",
        "ning"
      ],
      [
        "s",
        "po"
      ],
      [
        "u",
        "d"
      ],
      [
        "re",
        "n"
      ],
      [
        "al",
        "in"
      ],
      [
        "ard",
        "s"
      ],
      [
        "hel",
        "p"
      ],
      [
        "vent",
        "ure"
      ],
      [
        "S",
        "m"
      ],
      [
        "a",
        "il"
      ],
      [
        "c",
        "ted"
      ],
      [
        "w",
        "r"
      ],
      [
        "ll",
        "s"
      ],
      [
        "pe",
        "ople"
      ],
      [
        "po",
        "ss"
      ],
      [
        "te",
        "red"
      ],
      [
        "el",
        "ves"
      ],
      [
        "hap",
        "p"
      ],
      [
        "m",
        "es"
      ],
      [
        "s",
        "had"
      ],
      [
        "on",
        "d"
      ],
      [
        "to",
        "w"
      ],
      [
        "li",
        "fe"
      ],
      [
        "d",
        "ou"
      ],
      [
        "en",
        "ough"
      ],
      [
        "you",
        "ng"
      ],
      [
        "li",
        "e"
      ],
      [
        "ri",
        "ble"
      ],
      [
        "com",
        "p"
      ],
      [
        "sudden",
        "ly"
      ],
      [
        "O",
        "n"
      ],
      [
        "a",
        "id"
      ],
      [
        "an",
        "other"
      ],
      [
        "is",
        "hed"
      ],
      [
        "br",
        "an"
      ],
      [
        "cle",
        "ar"
      ],
      [
        "Sm",
        "aug"
      ],
      [
        "ou",
        "d"
      ],
      [
        "en",
        "e"
      ],
      [
        "us",
        "h"
      ],
      [
        "friend",
        "s"
      ],
      [
        "T",
        "h"
      ],
      [
        "b",
        "ed"
      ],
      [
        "c",
        "er"
      ],
      [
        "i",
        "ly"
      ],
      [
        "s",
        "ound"
      ],
      [
        "ed",
        "ge"
      ],
      [
        "to",
        "ge"
      ],
      [
        "ha",
        "lf"
      ],
      [
        "ke",
        "t"
      ],
      [
        "de",
        "ed"
      ],
      [
        "ion",
        "s"
      ],
      [
        "br",
        "ought"
      ],
      [
        "toge",
        "ther"
      ],
      [
        "f",
        "ast"
      ],
      [
        "k",
        "n"
      ],
      [
        "k",
        "en"
      ],
      [
        "be",
        "ing"
      ],
      [
        "al",
        "one"
      ],
      [
        "a",
        "v"
      ],
      [
        "k",
        "s"
      ],
      [
        "who",
        "le"
      ],
      [
        "Go",
        "llum"
      ],
      [
        "wa",
        "it"
      ],
      [
        "g",
        "ave"
      ],
      [
        "j",
        "o"
      ],
      [
        "on",
        "s"
      ],
      [
        "we",
        "en"
      ],
      [
        "ul",
        "t"
      ],
      [
        "bet",
        "ween"
      ],
      [
        "thre",
        "e"
      ],
      [
        "stoo",
        "d"
      ],
      [
        "m",
        "p"
      ],
      [
        "s",
        "ure"
      ],
      [
        "s",
        "low"
      ],
      [
        "w",
        "ind"
      ],
      [
        "re",
        "me"
      ],
      [
        "er",
        "ing"
      ],
      [
        "al",
        "so"
      ],
      [
        "lo",
        "st"
      ],
      [
        "ex",
        "pe"
      ],
      [
        "dou",
        "b"
      ],
      [
        "d",
        "one"
      ],
      [
        "th",
        "in"
      ],
      [
        "re",
        "ally"
      ],
      [
        "fe",
        "w"
      ],
      [
        "So",
        "me"
      ],
      [
        "ron",
        "t"
      ],
      [
        "g",
        "i"
      ],
      [
        "g",
        "one"
      ],
      [
        "m",
        "ind"
      ],
      [
        "gre",
        "en"
      ],
      [
        "other",
        "s"
      ],
      [
        "di",
        "re"
      ],
      [
        "B",
        "o"
      ],
      [
        "c",
        "ent"
      ],
      [
        "al",
        "ways"
      ],
      [
        "ad",
        "venture"
      ],
      [
        "A",
        "ll"
      ],
      [
        "d",
        "y"
      ],
      [
        "f",
        "oo"
      ],
      [
        "m",
        "it"
      ],
      [
        "he",
        "s"
      ],
      [
        "fo",
        "llow"
      ],
      [
        "com",
        "ing"
      ],
      [
        "wor",
        "ld"
      ],
      [
        "par",
        "t"
      ],
      [
        "dan",
        "ger"
      ],
      [
        "s",
        "ince"
      ],
      [
        "ac",
        "es"
      ],
      [
        "qu",
        "ick"
      ],
      [
        "hand",
        "s"
      ],
      [
        "poin",
        "t"
      ],
      [
        "mountain",
        "s"
      ],
      [
        "hu",
        "ge"
      ],
      [
        "F",
        "or"
      ],
      [
        "d",
        "red"
      ],
      [
        "p",
        "i"
      ],
      [
        "id",
        "d"
      ],
      [
        "all",
        "ey"
      ],
      [
        "hun",
        "dred"
      ],
      [
        "cli",
        "ff"
      ],
      [
        "b",
        "ur"
      ],
      [
        "g",
        "g"
      ],
      [
        "j",
        "e"
      ],
      [
        "s",
        "ci"
      ],
      [
        "en",
        "s"
      ],
      [
        "to",
        "p"
      ],
      [
        "to",
        "wards"
      ],
      [
        "ar",
        "s"
      ],
      [
        "al",
        "ready"
      ],
      [
        "ho",
        "pe"
      ],
      [
        "str",
        "ange"
      ],
      [
        "mb",
        "er"
      ],
      [
        "tow",
        "n"
      ],
      [
        "b",
        "ar"
      ],
      [
        "es",
        "tion"
      ],
      [
        "se",
        "lves"
      ],
      [
        "id",
        "er"
      ],
      [
        "po",
        "se"
      ],
      [
        "ex",
        "ce"
      ],
      [
        "wh",
        "ite"
      ],
      [
        "lar",
        "ge"
      ],
      [
        "f",
        "le"
      ],
      [
        "t",
        "ro"
      ],
      [
        "be",
        "low"
      ],
      [
        "pl",
        "ate"
      ],
      [
        "c",
        "es"
      ],
      [
        "c",
        "ri"
      ],
      [
        "k",
        "new"
      ],
      [
        "t",
        "able"
      ],
      [
        "v",
        "alley"
      ],
      [
        "qu",
        "i"
      ],
      [
        "gu",
        "ess"
      ],
      [
        "vo",
        "ice"
      ],
      [
        "B",
        "alin"
      ],
      [
        "H",
        "is"
      ],
      [
        "R",
        "o"
      ],
      [
        "b",
        "ird"
      ],
      [
        "c",
        "ed"
      ],
      [
        "f",
        "our"
      ],
      [
        "f",
        "ront"
      ],
      [
        "h",
        "ur"
      ],
      [
        "h",
        "um"
      ],
      [
        "t",
        "in"
      ],
      [
        "er",
        "y"
      ],
      [
        "he",
        "n"
      ],
      [
        "wi",
        "z"
      ],
      [
        "us",
        "hed"
      ],
      [
        "ca",
        "use"
      ],
      [
        "bet",
        "ter"
      ],
      [
        "ple",
        "as"
      ],
      [
        "k",
        "ind"
      ],
      [
        "en",
        "ti"
      ],
      [
        "mo",
        "on"
      ],
      [
        "again",
        "st"
      ],
      [
        "tun",
        "ne"
      ],
      [
        "plate",
        "au"
      ],
      [
        "e",
        "ag"
      ],
      [
        "e",
        "red"
      ],
      [
        "h",
        "er"
      ],
      [
        "l",
        "ad"
      ],
      [
        "l",
        "ake"
      ],
      [
        "n",
        "ed"
      ],
      [
        "o",
        "me"
      ],
      [
        "ou",
        "se"
      ],
      [
        "un",
        "g"
      ],
      [
        "ke",
        "ep"
      ],
      [
        "co",
        "ld"
      ],
      [
        "ne",
        "xt"
      ],
      [
        "hap",
        "s"
      ],
      [
        "pass",
        "ed"
      ],
      [
        "f",
        "lo"
      ],
      [
        "m",
        "in"
      ],
      [
        "le",
        "ep"
      ],
      [
        "st",
        "ep"
      ],
      [
        "ho",
        "ld"
      ],
      [
        "Indi",
        "ans"
      ],
      [
        "T",
        "o"
      ],
      [
        "f",
        "air"
      ],
      [
        "s",
        "n"
      ],
      [
        "in",
        "ter"
      ],
      [
        "me",
        "an"
      ],
      [
        "ve",
        "red"
      ],
      [
        "ut",
        "e"
      ],
      [
        "bl",
        "ed"
      ],
      [
        "how",
        "ever"
      ],
      [
        "cli",
        "mb"
      ],
      [
        "W",
        "h"
      ],
      [
        "b",
        "er"
      ],
      [
        "b",
        "es"
      ],
      [
        "p",
        "ers"
      ],
      [
        "as",
        "h"
      ],
      [
        "as",
        "sa"
      ],
      [
        "for",
        "m"
      ],
      [
        "for",
        "ward"
      ],
      [
        "il",
        "es"
      ],
      [
        "ul",
        "ar"
      ],
      [
        "word",
        "s"
      ],
      [
        "Be",
        "orn"
      ],
      [
        "dire",
        "ction"
      ],
      [
        "W",
        "hen"
      ],
      [
        "s",
        "ign"
      ],
      [
        "v",
        "is"
      ],
      [
        "ar",
        "m"
      ],
      [
        "ti",
        "mes"
      ],
      [
        "ne",
        "ed"
      ],
      [
        "con",
        "d"
      ],
      [
        "pre",
        "ss"
      ],
      [
        "str",
        "ong"
      ],
      [
        "bre",
        "ak"
      ],
      [
        "stre",
        "am"
      ],
      [
        "doub",
        "t"
      ],
      [
        "S",
        "outh"
      ],
      [
        "b",
        "ig"
      ],
      [
        "w",
        "al"
      ],
      [
        "as",
        "k"
      ],
      [
        "ch",
        "ing"
      ],
      [
        "fe",
        "lt"
      ],
      [
        "qu",
        "estion"
      ],
      [
        "im",
        "p"
      ],
      [
        "loo",
        "king"
      ],
      [
        "pre",
        "ci"
      ],
      [
        "itt",
        "ing"
      ],
      [
        "mat",
        "ter"
      ],
      [
        "cer",
        "tain"
      ],
      [
        "wiz",
        "ard"
      ],
      [
        "b",
        "ank"
      ],
      [
        "j",
        "our"
      ],
      [
        "t",
        "ri"
      ],
      [
        "in",
        "ess"
      ],
      [
        "re",
        "turn"
      ],
      [
        "le",
        "ast"
      ],
      [
        "sa",
        "fe"
      ],
      [
        "my",
        "self"
      ],
      [
        "de",
        "ad"
      ],
      [
        "end",
        "ed"
      ],
      [
        "ear",
        "s"
      ],
      [
        "appe",
        "ared"
      ],
      [
        "call",
        "ed"
      ],
      [
        "c",
        "u"
      ],
      [
        "d",
        "ro"
      ],
      [
        "e",
        "v"
      ],
      [
        "e",
        "at"
      ],
      [
        "o",
        "c"
      ],
      [
        "or",
        "i"
      ],
      [
        "wi",
        "ld"
      ],
      [
        "ain",
        "ed"
      ],
      [
        "fe",
        "ar"
      ],
      [
        "ca",
        "re"
      ],
      [
        "chi",
        "ef"
      ],
      [
        "kn",
        "own"
      ],
      [
        "W",
        "i"
      ],
      [
        "s",
        "he"
      ],
      [
        "w",
        "ant"
      ],
      [
        "so",
        "l"
      ],
      [
        "bo",
        "dy"
      ],
      [
        "gr",
        "y"
      ],
      [
        "com",
        "for"
      ],
      [
        "get",
        "ting"
      ],
      [
        "mb",
        "ur"
      ],
      [
        "No",
        "t"
      ],
      [
        "pr",
        "is"
      ],
      [
        "Bo",
        "mbur"
      ],
      [
        "f",
        "ter"
      ],
      [
        "s",
        "ort"
      ],
      [
        "y",
        "e"
      ],
      [
        "es",
        "ca"
      ],
      [
        "be",
        "lie"
      ],
      [
        "ly",
        "ing"
      ],
      [
        "creature",
        "s"
      ],
      [
        "A",
        "fter"
      ],
      [
        "B",
        "ard"
      ],
      [
        "a",
        "ut"
      ],
      [
        "b",
        "ow"
      ],
      [
        "b",
        "est"
      ],
      [
        "e",
        "as"
      ],
      [
        "r",
        "an"
      ],
      [
        "w",
        "his"
      ],
      [
        "w",
        "ide"
      ],
      [
        "to",
        "ld"
      ],
      [
        "bo",
        "th"
      ],
      [
        "pre",
        "sent"
      ],
      [
        "H",
        "ow"
      ],
      [
        "L",
        "ake"
      ],
      [
        "f",
        "ur"
      ],
      [
        "f",
        "act"
      ],
      [
        "s",
        "w"
      ],
      [
        "s",
        "li"
      ],
      [
        "s",
        "ong"
      ],
      [
        "u",
        "ally"
      ],
      [
        "re",
        "p"
      ],
      [
        "as",
        "ure"
      ],
      [
        "be",
        "y"
      ],
      [
        "mo",
        "ve"
      ],
      [
        "sh",
        "out"
      ],
      [
        "hor",
        "rible"
      ],
      [
        "dr",
        "aw"
      ],
      [
        "ak",
        "en"
      ],
      [
        "wood",
        "s"
      ],
      [
        "hard",
        "ly"
      ],
      [
        "i",
        "ther"
      ],
      [
        "l",
        "ine"
      ],
      [
        "n",
        "er"
      ],
      [
        "s",
        "ir"
      ],
      [
        "u",
        "ght"
      ],
      [
        "in",
        "deed"
      ],
      [
        "ar",
        "p"
      ],
      [
        "le",
        "gs"
      ],
      [
        "be",
        "cause"
      ],
      [
        "ac",
        "hed"
      ],
      [
        "ho",
        "me"
      ],
      [
        "ne",
        "y"
      ],
      [
        "ck",
        "ed"
      ],
      [
        "sh",
        "ow"
      ],
      [
        "c",
        "ir"
      ],
      [
        "p",
        "es"
      ],
      [
        "u",
        "b"
      ],
      [
        "ca",
        "ught"
      ],
      [
        "any",
        "thing"
      ],
      [
        "gre",
        "w"
      ],
      [
        "gr",
        "ow"
      ],
      [
        "sup",
        "pose"
      ],
      [
        "dif",
        "fic"
      ],
      [
        "slow",
        "ly"
      ],
      [
        "pers",
        "on"
      ],
      [
        "jour",
        "ney"
      ],
      [
        "M",
        "y"
      ],
      [
        "e",
        "ld"
      ],
      [
        "g",
        "es"
      ],
      [
        "l",
        "au"
      ],
      [
        "n",
        "ar"
      ],
      [
        "p",
        "ic"
      ],
      [
        "y",
        "s"
      ],
      [
        "an",
        "im"
      ],
      [
        "re",
        "al"
      ],
      [
        "me",
        "et"
      ],
      [
        "be",
        "ard"
      ],
      [
        "ro",
        "ad"
      ],
      [
        "ch",
        "o"
      ],
      [
        "ch",
        "ar"
      ],
      [
        "um",
        "p"
      ],
      [
        "ins",
        "ide"
      ],
      [
        "coun",
        "t"
      ],
      [
        "pon",
        "ies"
      ],
      [
        "poss",
        "ible"
      ],
      [
        "a",
        "pe"
      ],
      [
        "c",
        "ess"
      ],
      [
        "f",
        "ood"
      ],
      [
        "h",
        "our"
      ],
      [
        "r",
        "ather"
      ],
      [
        "v",
        "an"
      ],
      [
        "ag",
        "o"
      ],
      [
        "qu",
        "e"
      ],
      [
        "coun",
        "try"
      ],
      [
        "iz",
        "e"
      ],
      [
        "tunne",
        "l"
      ],
      [
        "anim",
        "al"
      ],
      [
        "F",
        "ili"
      ],
      [
        "a",
        "the"
      ],
      [
        "h",
        "ouse"
      ],
      [
        "m",
        "iles"
      ],
      [
        "o",
        "d"
      ],
      [
        "s",
        "lo"
      ],
      [
        "s",
        "itting"
      ],
      [
        "en",
        "se"
      ],
      [
        "co",
        "vered"
      ],
      [
        "bo",
        "at"
      ],
      [
        "appe",
        "ar"
      ],
      [
        "bus",
        "iness"
      ],
      [
        "cha",
        "ir"
      ],
      [
        "E",
        "l"
      ],
      [
        "n",
        "at"
      ],
      [
        "s",
        "cr"
      ],
      [
        "re",
        "as"
      ],
      [
        "beg",
        "in"
      ],
      [
        "full",
        "y"
      ],
      [
        "sho",
        "t"
      ],
      [
        "bran",
        "ches"
      ],
      [
        "qui",
        "et"
      ],
      [
        "belie",
        "ve"
      ],
      [
        "bey",
        "ond"
      ],
      [
        "A",
        "l"
      ],
      [
        "B",
        "y"
      ],
      [
        "S",
        "u"
      ],
      [
        "f",
        "in"
      ],
      [
        "f",
        "re"
      ],
      [
        "n",
        "ame"
      ],
      [
        "r",
        "is"
      ],
      [
        "s",
        "wi"
      ],
      [
        "le",
        "ave"
      ],
      [
        "ro",
        "pe"
      ],
      [
        "ne",
        "are"
      ],
      [
        "fe",
        "ren"
      ],
      [
        "po",
        "c"
      ],
      [
        "pl",
        "ain"
      ],
      [
        "can",
        "not"
      ],
      [
        "tre",
        "asure"
      ],
      [
        "even",
        "ing"
      ],
      [
        "xt",
        "on"
      ],
      [
        "comp",
        "an"
      ],
      [
        "reme",
        "mber"
      ],
      [
        "Ro",
        "xton"
      ],
      [
        "T",
        "H"
      ],
      [
        "f",
        "low"
      ],
      [
        "g",
        "ed"
      ],
      [
        "l",
        "uck"
      ],
      [
        "m",
        "ag"
      ],
      [
        "r",
        "or"
      ],
      [
        "s",
        "mo"
      ],
      [
        "s",
        "pl"
      ],
      [
        "th",
        "ick"
      ],
      [
        "ar",
        "ms"
      ],
      [
        "le",
        "a"
      ],
      [
        "do",
        "es"
      ],
      [
        "pl",
        "an"
      ],
      [
        "wor",
        "k"
      ],
      [
        "ans",
        "w"
      ],
      [
        "tal",
        "k"
      ],
      [
        "near",
        "ly"
      ],
      [
        "dist",
        "ance"
      ],
      [
        "D",
        "on"
      ],
      [
        "O",
        "ne"
      ],
      [
        "f",
        "ather"
      ],
      [
        "k",
        "ill"
      ],
      [
        "w",
        "ish"
      ],
      [
        "en",
        "er"
      ],
      [
        "it",
        "ion"
      ],
      [
        "co",
        "ll"
      ],
      [
        "fi",
        "lled"
      ],
      [
        "op",
        "ened"
      ],
      [
        "gu",
        "ard"
      ],
      [
        "rock",
        "s"
      ],
      [
        "dre",
        "am"
      ],
      [
        "ene",
        "ath"
      ],
      [
        "A",
        "mer"
      ],
      [
        "g",
        "ri"
      ],
      [
        "p",
        "assa"
      ],
      [
        "s",
        "word"
      ],
      [
        "be",
        "ar"
      ],
      [
        "ro",
        "om"
      ],
      [
        "ho",
        "le"
      ],
      [
        "whe",
        "ther"
      ],
      [
        "sh",
        "ort"
      ],
      [
        "bl",
        "ue"
      ],
      [
        "br",
        "ing"
      ],
      [
        "im",
        "ag"
      ],
      [
        "ic",
        "al"
      ],
      [
        "dark",
        "ness"
      ],
      [
        "fell",
        "ow"
      ],
      [
        "vo",
        "l"
      ],
      [
        "hear",
        "t"
      ],
      [
        "foo",
        "t"
      ],
      [
        "bar",
        "re"
      ],
      [
        "Amer",
        "i"
      ],
      [
        "C",
        "ome"
      ],
      [
        "c",
        "ross"
      ],
      [
        "i",
        "le"
      ],
      [
        "m",
        "aking"
      ],
      [
        "r",
        "a"
      ],
      [
        "s",
        "hi"
      ],
      [
        "s",
        "ight"
      ],
      [
        "s",
        "leep"
      ],
      [
        "t",
        "aken"
      ],
      [
        "in",
        "te"
      ],
      [
        "he",
        "ld"
      ],
      [
        "ll",
        "ing"
      ],
      [
        "st",
        "ones"
      ],
      [
        "id",
        "ent"
      ],
      [
        "ag",
        "ed"
      ],
      [
        "con",
        "f"
      ],
      [
        "long",
        "er"
      ],
      [
        "dwar",
        "f"
      ],
      [
        "cr",
        "y"
      ],
      [
        "ation",
        "s"
      ],
      [
        "head",
        "s"
      ],
      [
        "land",
        "s"
      ],
      [
        "sil",
        "ver"
      ],
      [
        "att",
        "le"
      ],
      [
        "flo",
        "or"
      ],
      [
        "b",
        "eneath"
      ],
      [
        "e",
        "w"
      ],
      [
        "g",
        "ro"
      ],
      [
        "n",
        "um"
      ],
      [
        "p",
        "ri"
      ],
      [
        "s",
        "or"
      ],
      [
        "in",
        "ing"
      ],
      [
        "re",
        "ly"
      ],
      [
        "or",
        "m"
      ],
      [
        "le",
        "ad"
      ],
      [
        "al",
        "most"
      ],
      [
        "ab",
        "ly"
      ],
      [
        "ey",
        "e"
      ],
      [
        "clo",
        "se"
      ],
      [
        "f",
        "right"
      ],
      [
        "r",
        "ain"
      ],
      [
        "w",
        "and"
      ],
      [
        "y",
        "es"
      ],
      [
        "be",
        "ast"
      ],
      [
        "id",
        "es"
      ],
      [
        "out",
        "side"
      ],
      [
        "il",
        "ed"
      ],
      [
        "po",
        "or"
      ],
      [
        "te",
        "en"
      ],
      [
        "car",
        "ried"
      ],
      [
        "iz",
        "ed"
      ],
      [
        "dif",
        "feren"
      ],
      [
        "feel",
        "ing"
      ],
      [
        "inte",
        "rest"
      ],
      [
        "d",
        "read"
      ],
      [
        "i",
        "ves"
      ],
      [
        "l",
        "k"
      ],
      [
        "l",
        "ate"
      ],
      [
        "p",
        "ick"
      ],
      [
        "t",
        "all"
      ],
      [
        "u",
        "ff"
      ],
      [
        "li",
        "ved"
      ],
      [
        "ad",
        "d"
      ],
      [
        "with",
        "in"
      ],
      [
        "con",
        "s"
      ],
      [
        "el",
        "se"
      ],
      [
        "under",
        "stand"
      ],
      [
        "car",
        "ry"
      ],
      [
        "wh",
        "y"
      ],
      [
        "rem",
        "ark"
      ],
      [
        "open",
        "ing"
      ],
      [
        "fur",
        "ther"
      ],
      [
        "answ",
        "er"
      ],
      [
        "A",
        "r"
      ],
      [
        "E",
        "R"
      ],
      [
        "E",
        "ven"
      ],
      [
        "F",
        "rom"
      ],
      [
        "N",
        "or"
      ],
      [
        "c",
        "at"
      ],
      [
        "c",
        "ut"
      ],
      [
        "d",
        "ri"
      ],
      [
        "t",
        "ent"
      ],
      [
        "v",
        "al"
      ],
      [
        "en",
        "g"
      ],
      [
        "en",
        "orm"
      ],
      [
        "it",
        "ed"
      ],
      [
        "ch",
        "ance"
      ],
      [
        "them",
        "selves"
      ],
      [
        "de",
        "red"
      ],
      [
        "ap",
        "ped"
      ],
      [
        "end",
        "ing"
      ],
      [
        "ex",
        "p"
      ],
      [
        "gr",
        "ass"
      ],
      [
        "per",
        "i"
      ],
      [
        "spe",
        "ak"
      ],
      [
        "preci",
        "ous"
      ],
      [
        "reas",
        "on"
      ],
      [
        "enorm",
        "ous"
      ],
      [
        "L",
        "et"
      ],
      [
        "b",
        "ad"
      ],
      [
        "p",
        "ack"
      ],
      [
        "s",
        "we"
      ],
      [
        "t",
        "w"
      ],
      [
        "er",
        "t"
      ],
      [
        "ha",
        "ir"
      ],
      [
        "le",
        "ap"
      ],
      [
        "st",
        "ant"
      ],
      [
        "be",
        "aut"
      ],
      [
        "The",
        "ir"
      ],
      [
        "ca",
        "ves"
      ],
      [
        "ex",
        "c"
      ],
      [
        "tr",
        "ue"
      ],
      [
        "ide",
        "a"
      ],
      [
        "br",
        "id"
      ],
      [
        "ci",
        "ally"
      ],
      [
        "per",
        "haps"
      ],
      [
        "So",
        "on"
      ],
      [
        "gobl",
        "in"
      ],
      [
        "sto",
        "pped"
      ],
      [
        "vi",
        "ew"
      ],
      [
        "des",
        "cri"
      ],
      [
        "cas",
        "e"
      ],
      [
        "spo",
        "ke"
      ],
      [
        "expe",
        "ct"
      ],
      [
        "Wi",
        "th"
      ],
      [
        ")",
        ","
      ],
      [
        "F",
        "o"
      ],
      [
        "g",
        "un"
      ],
      [
        "g",
        "ent"
      ],
      [
        "g",
        "ate"
      ],
      [
        "h",
        "ood"
      ],
      [
        "p",
        "ow"
      ],
      [
        "p",
        "ur"
      ],
      [
        "y",
        "ears"
      ],
      [
        "at",
        "er"
      ],
      [
        "se",
        "ver"
      ],
      [
        "id",
        "ers"
      ],
      [
        "for",
        "got"
      ],
      [
        "ke",
        "pt"
      ],
      [
        "ag",
        "es"
      ],
      [
        "fe",
        "ct"
      ],
      [
        "ca",
        "ve"
      ],
      [
        "He",
        "re"
      ],
      [
        "tr",
        "u"
      ],
      [
        "tr",
        "ou"
      ],
      [
        "shad",
        "ow"
      ],
      [
        "shad",
        "ows"
      ],
      [
        "expe",
        "cted"
      ],
      [
        "adventure",
        "s"
      ],
      [
        "break",
        "fast"
      ],
      [
        "sever",
        "al"
      ],
      [
        "K",
        "ili"
      ],
      [
        "M",
        "alone"
      ],
      [
        "O",
        "f"
      ],
      [
        "b",
        "u"
      ],
      [
        "h",
        "ang"
      ],
      [
        "i",
        "x"
      ],
      [
        "n",
        "y"
      ],
      [
        "n",
        "one"
      ],
      [
        "r",
        "ang"
      ],
      [
        "re",
        "ached"
      ],
      [
        "at",
        "ing"
      ],
      [
        "le",
        "ar"
      ],
      [
        "st",
        "er"
      ],
      [
        "be",
        "red"
      ],
      [
        "no",
        "ise"
      ],
      [
        "de",
        "al"
      ],
      [
        "fo",
        "lk"
      ],
      [
        "lo",
        "g"
      ],
      [
        "bl",
        "ing"
      ],
      [
        "fi",
        "ve"
      ],
      [
        "let",
        "ter"
      ],
      [
        "bro",
        "ken"
      ],
      [
        "enti",
        "fic"
      ],
      [
        "Wh",
        "y"
      ],
      [
        "bes",
        "ide"
      ],
      [
        "begin",
        "ning"
      ],
      [
        "D",
        "ori"
      ],
      [
        "H",
        "A"
      ],
      [
        "R",
        "i"
      ],
      [
        "W",
        "here"
      ],
      [
        "c",
        "ing"
      ],
      [
        "f",
        "er"
      ],
      [
        "g",
        "le"
      ],
      [
        "l",
        "it"
      ],
      [
        "m",
        "id"
      ],
      [
        "m",
        "outh"
      ],
      [
        "p",
        "in"
      ],
      [
        "p",
        "at"
      ],
      [
        "s",
        "me"
      ],
      [
        "u",
        "al"
      ],
      [
        "an",
        "ted"
      ],
      [
        "an",
        "gry"
      ],
      [
        "he",
        "av"
      ],
      [
        "is",
        "ed"
      ],
      [
        "se",
        "cre"
      ],
      [
        "The",
        "se"
      ],
      [
        "ke",
        "ts"
      ],
      [
        "were",
        "d"
      ],
      [
        "if",
        "ul"
      ],
      [
        "sp",
        "iders"
      ],
      [
        "cr",
        "ack"
      ],
      [
        "vi",
        "ce"
      ],
      [
        "Go",
        "bl"
      ],
      [
        "fall",
        "en"
      ],
      [
        "sk",
        "y"
      ],
      [
        "sci",
        "entific"
      ],
      [
        "hum",
        "an"
      ],
      [
        "pris",
        "on"
      ],
      [
        "D",
        "ale"
      ],
      [
        "M",
        "aster"
      ],
      [
        "W",
        "ill"
      ],
      [
        "l",
        "oud"
      ],
      [
        "n",
        "s"
      ],
      [
        "s",
        "on"
      ],
      [
        "or",
        "s"
      ],
      [
        "bo",
        "t"
      ],
      [
        "um",
        "bled"
      ],
      [
        "ast",
        "y"
      ],
      [
        "ex",
        "peri"
      ],
      [
        "tr",
        "un"
      ],
      [
        "see",
        "m"
      ],
      [
        "cas",
        "ion"
      ],
      [
        "gi",
        "ven"
      ],
      [
        "idd",
        "le"
      ],
      [
        "je",
        "ct"
      ],
      [
        "bird",
        "s"
      ],
      [
        "b",
        "right"
      ],
      [
        "b",
        "attle"
      ],
      [
        "d",
        "u"
      ],
      [
        "o",
        "l"
      ],
      [
        "or",
        "der"
      ],
      [
        "it",
        "self"
      ],
      [
        "am",
        "es"
      ],
      [
        "ca",
        "p"
      ],
      [
        "po",
        "sit"
      ],
      [
        "tr",
        "a"
      ],
      [
        "ment",
        "s"
      ],
      [
        "ans",
        "wered"
      ],
      [
        "dden",
        "ly"
      ],
      [
        "az",
        "e"
      ],
      [
        "dre",
        "w"
      ],
      [
        "wonder",
        "ful"
      ],
      [
        "comfor",
        "table"
      ],
      [
        "shout",
        "ed"
      ],
      [
        "Su",
        "ddenly"
      ],
      [
        "gle",
        "am"
      ],
      [
        "heav",
        "y"
      ],
      [
        "V",
        "ery"
      ],
      [
        "a",
        "ld"
      ],
      [
        "a",
        "im"
      ],
      [
        "b",
        "oo"
      ],
      [
        "e",
        "le"
      ],
      [
        "f",
        "am"
      ],
      [
        "f",
        "if"
      ],
      [
        "g",
        "ure"
      ],
      [
        "g",
        "ener"
      ],
      [
        "u",
        "ri"
      ],
      [
        "at",
        "ive"
      ],
      [
        "as",
        "hed"
      ],
      [
        "of",
        "ten"
      ],
      [
        "be",
        "came"
      ],
      [
        "li",
        "c"
      ],
      [
        "co",
        "l"
      ],
      [
        "sh",
        "arp"
      ],
      [
        "fi",
        "gure"
      ],
      [
        "su",
        "b"
      ],
      [
        "ate",
        "ly"
      ],
      [
        "sp",
        "ring"
      ],
      [
        "pre",
        "t"
      ],
      [
        "wo",
        "lves"
      ],
      [
        "wat",
        "ch"
      ],
      [
        "gl",
        "ar"
      ],
      [
        "bus",
        "hes"
      ],
      [
        "follow",
        "ed"
      ],
      [
        "athe",
        "red"
      ],
      [
        "beaut",
        "iful"
      ],
      [
        "G",
        "re"
      ],
      [
        "G",
        "ood"
      ],
      [
        "O",
        "ur"
      ],
      [
        "W",
        "ho"
      ],
      [
        "d",
        "are"
      ],
      [
        "e",
        "ither"
      ],
      [
        "g",
        "loo"
      ],
      [
        "g",
        "athered"
      ],
      [
        "l",
        "aid"
      ],
      [
        "t",
        "ou"
      ],
      [
        "ro",
        "se"
      ],
      [
        "ac",
        "count"
      ],
      [
        "al",
        "ive"
      ],
      [
        "ri",
        "fle"
      ],
      [
        "am",
        "id"
      ],
      [
        "il",
        "ing"
      ],
      [
        "ord",
        "in"
      ],
      [
        "sha",
        "re"
      ],
      [
        "sil",
        "ent"
      ],
      [
        "ob",
        "ser"
      ],
      [
        "certain",
        "ly"
      ],
      [
        "oc",
        "casion"
      ],
      [
        "lau",
        "gh"
      ],
      [
        "nar",
        "row"
      ],
      [
        "differen",
        "t"
      ],
      [
        "cons",
        "ider"
      ],
      [
        "brid",
        "ge"
      ],
      [
        ")",
        "."
      ],
      [
        "I",
        "I"
      ],
      [
        "P",
        "er"
      ],
      [
        "e",
        "k"
      ],
      [
        "e",
        "m"
      ],
      [
        "f",
        "r"
      ],
      [
        "m",
        "ap"
      ],
      [
        "p",
        "ast"
      ],
      [
        "s",
        "ion"
      ],
      [
        "s",
        "ize"
      ],
      [
        "t",
        "on"
      ],
      [
        "re",
        "g"
      ],
      [
        "at",
        "tered"
      ],
      [
        "ar",
        "t"
      ],
      [
        "ar",
        "ch"
      ],
      [
        "ha",
        "ving"
      ],
      [
        "se",
        "cond"
      ],
      [
        "hi",
        "ll"
      ],
      [
        "ain",
        "t"
      ],
      [
        "ne",
        "ck"
      ],
      [
        "um",
        "ped"
      ],
      [
        "there",
        "fore"
      ],
      [
        "pl",
        "aces"
      ],
      [
        "te",
        "e"
      ],
      [
        "ic",
        "es"
      ],
      [
        "str",
        "a"
      ],
      [
        "gl",
        "ad"
      ],
      [
        "ear",
        "th"
      ],
      [
        "sil",
        "ence"
      ],
      [
        "pi",
        "e"
      ],
      [
        "diffic",
        "ult"
      ],
      [
        "dread",
        "ful"
      ],
      [
        "secre",
        "t"
      ],
      [
        "E",
        "n"
      ],
      [
        "O",
        "R"
      ],
      [
        "Y",
        "es"
      ],
      [
        "c",
        "us"
      ],
      [
        "s",
        "es"
      ],
      [
        "t",
        "ure"
      ],
      [
        "th",
        "ro"
      ],
      [
        "st",
        "ick"
      ],
      [
        "we",
        "l"
      ],
      [
        "ce",
        "ed"
      ],
      [
        "ter",
        "rible"
      ],
      [
        "de",
        "ar"
      ],
      [
        "lo",
        "t"
      ],
      [
        "ex",
        "ped"
      ],
      [
        "fi",
        "ght"
      ],
      [
        "te",
        "m"
      ],
      [
        "like",
        "ly"
      ],
      [
        "con",
        "tin"
      ],
      [
        "cl",
        "aim"
      ],
      [
        "wor",
        "th"
      ],
      [
        "par",
        "ts"
      ],
      [
        "new",
        "s"
      ],
      [
        "run",
        "ning"
      ],
      [
        "Indi",
        "an"
      ],
      [
        "wait",
        "ing"
      ],
      [
        "danger",
        "ous"
      ],
      [
        "exce",
        "pt"
      ],
      [
        "TH",
        "E"
      ],
      [
        "mag",
        "ic"
      ],
      [
        "Nor",
        "th"
      ],
      [
        "G",
        "ate"
      ],
      [
        "M",
        "ir"
      ],
      [
        "b",
        "b"
      ],
      [
        "c",
        "y"
      ],
      [
        "f",
        "at"
      ],
      [
        "h",
        "on"
      ],
      [
        "i",
        "am"
      ],
      [
        "l",
        "aug"
      ],
      [
        "n",
        "i"
      ],
      [
        "n",
        "asty"
      ],
      [
        "r",
        "ad"
      ],
      [
        "r",
        "ows"
      ],
      [
        "t",
        "led"
      ],
      [
        "t",
        "ried"
      ],
      [
        "u",
        "red"
      ],
      [
        "y",
        "ed"
      ],
      [
        "an",
        "ts"
      ],
      [
        "re",
        "ach"
      ],
      [
        "at",
        "es"
      ],
      [
        "st",
        "ay"
      ],
      [
        "id",
        "ence"
      ],
      [
        "li",
        "ve"
      ],
      [
        "for",
        "th"
      ],
      [
        "un",
        "d"
      ],
      [
        "ght",
        "er"
      ],
      [
        "sa",
        "ve"
      ],
      [
        "fi",
        "er"
      ],
      [
        "star",
        "ted"
      ],
      [
        "mon",
        "str"
      ],
      [
        "guess",
        "ed"
      ],
      [
        "esca",
        "pe"
      ],
      [
        "song",
        "s"
      ],
      [
        "swi",
        "ft"
      ],
      [
        "exp",
        "lo"
      ],
      [
        "trou",
        "ble"
      ],
      [
        "Ri",
        "ver"
      ],
      [
        "laug",
        "hed"
      ],
      [
        ".",
        ")"
      ],
      [
        "M",
        "o"
      ],
      [
        "b",
        "urn"
      ],
      [
        "c",
        "or"
      ],
      [
        "e",
        "lf"
      ],
      [
        "e",
        "mp"
      ],
      [
        "f",
        "ac"
      ],
      [
        "g",
        "li"
      ],
      [
        "i",
        "ed"
      ],
      [
        "p",
        "s"
      ],
      [
        "p",
        "al"
      ],
      [
        "p",
        "ter"
      ],
      [
        "r",
        "ough"
      ],
      [
        "r",
        "ace"
      ],
      [
        "t",
        "aking"
      ],
      [
        "w",
        "ings"
      ],
      [
        "in",
        "cl"
      ],
      [
        "he",
        "ight"
      ],
      [
        "me",
        "ant"
      ],
      [
        "al",
        "th"
      ],
      [
        "li",
        "ar"
      ],
      [
        "sh",
        "ri"
      ],
      [
        "lo",
        "ve"
      ],
      [
        "tr",
        "ave"
      ],
      [
        "au",
        "di"
      ],
      [
        "led",
        "ge"
      ],
      [
        "door",
        "s"
      ],
      [
        "poin",
        "ted"
      ],
      [
        "rem",
        "ain"
      ],
      [
        "stand",
        "ing"
      ],
      [
        "climb",
        "ed"
      ],
      [
        "sli",
        "pped"
      ],
      [
        "lea",
        "ves"
      ],
      [
        "passa",
        "ge"
      ],
      [
        "Will",
        "iam"
      ],
      [
        "ordin",
        "ary"
      ],
      [
        "stra",
        "ight"
      ],
      [
        ".",
        "'"
      ],
      [
        "B",
        "ert"
      ],
      [
        "D",
        "ain"
      ],
      [
        "G",
        "lad"
      ],
      [
        "J",
        "ust"
      ],
      [
        "K",
        "ing"
      ],
      [
        "Q",
        "u"
      ],
      [
        "a",
        "h"
      ],
      [
        "f",
        "ing"
      ],
      [
        "f",
        "ine"
      ],
      [
        "f",
        "lying"
      ],
      [
        "i",
        "re"
      ],
      [
        "k",
        "wood"
      ],
      [
        "l",
        "an"
      ],
      [
        "l",
        "er"
      ],
      [
        "m",
        "ark"
      ],
      [
        "p",
        "ale"
      ],
      [
        "r",
        "ushed"
      ],
      [
        "s",
        "ix"
      ],
      [
        "y",
        "ards"
      ],
      [
        "in",
        "stant"
      ],
      [
        "re",
        "f"
      ],
      [
        "es",
        "pe"
      ],
      [
        "ro",
        "ar"
      ],
      [
        "ac",
        "ty"
      ],
      [
        "ut",
        "es"
      ],
      [
        "li",
        "es"
      ],
      [
        "co",
        "ver"
      ],
      [
        "our",
        "selves"
      ],
      [
        "mo",
        "ved"
      ],
      [
        "sh",
        "ining"
      ],
      [
        "do",
        "ing"
      ],
      [
        "sp",
        "ir"
      ],
      [
        "dr",
        "y"
      ],
      [
        "str",
        "u"
      ],
      [
        "fell",
        "ah"
      ],
      [
        "spe",
        "ct"
      ],
      [
        "hun",
        "g"
      ],
      [
        "sing",
        "le"
      ],
      [
        "mar",
        "ked"
      ],
      [
        "gold",
        "en"
      ],
      [
        "tor",
        "ches"
      ],
      [
        "happ",
        "ened"
      ],
      [
        "sure",
        "ly"
      ],
      [
        "tro",
        "lls"
      ],
      [
        "eas",
        "y"
      ],
      [
        "cir",
        "cle"
      ],
      [
        "od",
        "acty"
      ],
      [
        "barre",
        "ls"
      ],
      [
        "forgot",
        "ten"
      ],
      [
        "posit",
        "ion"
      ],
      [
        "gener",
        "al"
      ],
      [
        "Gre",
        "at"
      ],
      [
        "Mir",
        "kwood"
      ],
      [
        "pter",
        "odacty"
      ],
      [
        "Glad",
        "ys"
      ],
      [
        "C",
        "HA"
      ],
      [
        "I",
        "N"
      ],
      [
        "W",
        "est"
      ],
      [
        "b",
        "ook"
      ],
      [
        "d",
        "im"
      ],
      [
        "p",
        "ap"
      ],
      [
        "t",
        "le"
      ],
      [
        "at",
        "s"
      ],
      [
        "he",
        "a"
      ],
      [
        "is",
        "ten"
      ],
      [
        "st",
        "ri"
      ],
      [
        "me",
        "t"
      ],
      [
        "ti",
        "ve"
      ],
      [
        "ent",
        "r"
      ],
      [
        "sh",
        "ut"
      ],
      [
        "tr",
        "ack"
      ],
      [
        "tr",
        "ust"
      ],
      [
        "com",
        "es"
      ],
      [
        "par",
        "ty"
      ],
      [
        "ear",
        "ly"
      ],
      [
        "ron",
        "d"
      ],
      [
        "tal",
        "king"
      ],
      [
        "star",
        "s"
      ],
      [
        "happ",
        "en"
      ],
      [
        "eag",
        "er"
      ],
      [
        "step",
        "s"
      ],
      [
        "neare",
        "r"
      ],
      [
        "compan",
        "ions"
      ],
      [
        "smo",
        "ke"
      ],
      [
        "lear",
        "ned"
      ],
      [
        "bot",
        "to"
      ],
      [
        "fier",
        "ce"
      ],
      [
        "audi",
        "ence"
      ],
      [
        "E",
        "x"
      ],
      [
        "M",
        "ap"
      ],
      [
        "S",
        "till"
      ],
      [
        "Y",
        "our"
      ],
      [
        "f",
        "ish"
      ],
      [
        "f",
        "aces"
      ],
      [
        "g",
        "ar"
      ],
      [
        "l",
        "eng"
      ],
      [
        "m",
        "aster"
      ],
      [
        "m",
        "iddle"
      ],
      [
        "p",
        "rom"
      ],
      [
        "r",
        "up"
      ],
      [
        "t",
        "ted"
      ],
      [
        "w",
        "est"
      ],
      [
        "z",
        "z"
      ],
      [
        "in",
        "c"
      ],
      [
        "an",
        "ed"
      ],
      [
        "re",
        "ed"
      ],
      [
        "as",
        "e"
      ],
      [
        "is",
        "ted"
      ],
      [
        "le",
        "g"
      ],
      [
        "ro",
        "o"
      ],
      [
        "ro",
        "lled"
      ],
      [
        "ve",
        "l"
      ],
      [
        "li",
        "ked"
      ],
      [
        "for",
        "tun"
      ],
      [
        "ad",
        "mit"
      ],
      [
        "ab",
        "sol"
      ],
      [
        "de",
        "v"
      ],
      [
        "gr",
        "ap"
      ],
      [
        "par",
        "tic"
      ],
      [
        "gu",
        "ards"
      ],
      [
        "des",
        "c"
      ],
      [
        "clo",
        "sed"
      ],
      [
        "sup",
        "per"
      ],
      [
        "wall",
        "s"
      ],
      [
        "bran",
        "ch"
      ],
      [
        "sci",
        "ence"
      ],
      [
        "pleas",
        "ant"
      ],
      [
        "Wh",
        "ite"
      ],
      [
        "dro",
        "pped"
      ],
      [
        "pic",
        "ture"
      ],
      [
        "meet",
        "ing"
      ],
      [
        "poc",
        "ket"
      ],
      [
        "gri",
        "m"
      ],
      [
        "hang",
        "ing"
      ],
      [
        "prison",
        "ers"
      ],
      [
        "exped",
        "ition"
      ],
      [
        "espe",
        "cially"
      ],
      [
        "Map",
        "le"
      ],
      [
        "absol",
        "ute"
      ],
      [
        "E",
        "ast"
      ],
      [
        "H",
        "ill"
      ],
      [
        "b",
        "ound"
      ],
      [
        "c",
        "orn"
      ],
      [
        "e",
        "z"
      ],
      [
        "i",
        "gh"
      ],
      [
        "o",
        "es"
      ],
      [
        "p",
        "or"
      ],
      [
        "p",
        "ull"
      ],
      [
        "r",
        "aid"
      ],
      [
        "s",
        "y"
      ],
      [
        "t",
        "wi"
      ],
      [
        "t",
        "ched"
      ],
      [
        "w",
        "ise"
      ],
      [
        "th",
        "ous"
      ],
      [
        "re",
        "l"
      ],
      [
        "as",
        "c"
      ],
      [
        "to",
        "ry"
      ],
      [
        "or",
        "ge"
      ],
      [
        "st",
        "uck"
      ],
      [
        "st",
        "ud"
      ],
      [
        "me",
        "ans"
      ],
      [
        "ac",
        "le"
      ],
      [
        "un",
        "ning"
      ],
      [
        "un",
        "known"
      ],
      [
        "ce",
        "i"
      ],
      [
        "am",
        "bo"
      ],
      [
        "ter",
        "ing"
      ],
      [
        "gre",
        "y"
      ],
      [
        "ap",
        "pro"
      ],
      [
        "ex",
        "press"
      ],
      [
        "see",
        "ms"
      ],
      [
        "sp",
        "ider"
      ],
      [
        "im",
        "possible"
      ],
      [
        "tion",
        "s"
      ],
      [
        "cre",
        "pt"
      ],
      [
        "aw",
        "are"
      ],
      [
        "sto",
        "ry"
      ],
      [
        "dragon",
        "s"
      ],
      [
        "Be",
        "fore"
      ],
      [
        "sha",
        "pe"
      ],
      [
        "rem",
        "ained"
      ],
      [
        "nor",
        "th"
      ],
      [
        "ste",
        "ad"
      ],
      [
        "ste",
        "ep"
      ],
      [
        "sk",
        "in"
      ],
      [
        "bur",
        "glar"
      ],
      [
        "hur",
        "ried"
      ],
      [
        "esca",
        "ped"
      ],
      [
        "El",
        "rond"
      ],
      [
        "gent",
        "le"
      ],
      [
        "tru",
        "th"
      ],
      [
        "sme",
        "ll"
      ],
      [
        "partic",
        "ular"
      ],
      [
        "thous",
        "and"
      ],
      [
        "A",
        "m"
      ],
      [
        "D",
        "r"
      ],
      [
        "L",
        "on"
      ],
      [
        "R",
        "e"
      ],
      [
        "T",
        "om"
      ],
      [
        "W",
        "ar"
      ],
      [
        "Z",
        "ambo"
      ],
      [
        "a",
        "x"
      ],
      [
        "e",
        "cho"
      ],
      [
        "g",
        "as"
      ],
      [
        "g",
        "az"
      ],
      [
        "l",
        "in"
      ],
      [
        "m",
        "ut"
      ],
      [
        "m",
        "ad"
      ],
      [
        "p",
        "ho"
      ],
      [
        "p",
        "ushed"
      ],
      [
        "s",
        "qu"
      ],
      [
        "s",
        "que"
      ],
      [
        "t",
        "ale"
      ],
      [
        "v",
        "ar"
      ],
      [
        "ar",
        "med"
      ],
      [
        "id",
        "ed"
      ],
      [
        "ve",
        "lo"
      ],
      [
        "for",
        "med"
      ],
      [
        "oo",
        "l"
      ],
      [
        "ke",
        "y"
      ],
      [
        "lo",
        "in"
      ],
      [
        "some",
        "times"
      ],
      [
        "do",
        "z"
      ],
      [
        "pl",
        "ay"
      ],
      [
        "fi",
        "res"
      ],
      [
        "war",
        "m"
      ],
      [
        "sp",
        "ite"
      ],
      [
        "sp",
        "rang"
      ],
      [
        "tre",
        "m"
      ],
      [
        "mer",
        "ry"
      ],
      [
        "low",
        "er"
      ],
      [
        "dis",
        "covered"
      ],
      [
        "turn",
        "ing"
      ],
      [
        "che",
        "st"
      ],
      [
        "gl",
        "ing"
      ],
      [
        "fl",
        "es"
      ],
      [
        "vo",
        "ices"
      ],
      [
        "bre",
        "ed"
      ],
      [
        "thre",
        "w"
      ],
      [
        "jo",
        "y"
      ],
      [
        "quick",
        "ly"
      ],
      [
        "wal",
        "ked"
      ],
      [
        "cu",
        "ri"
      ],
      [
        "ye",
        "llow"
      ],
      [
        "appear",
        "ance"
      ],
      [
        "El",
        "ven"
      ],
      [
        "kill",
        "ed"
      ],
      [
        "Ameri",
        "ca"
      ],
      [
        "pow",
        "er"
      ],
      [
        "gloo",
        "m"
      ],
      [
        "Per",
        "haps"
      ],
      [
        "emp",
        "ty"
      ],
      [
        "botto",
        "m"
      ],
      [
        "leng",
        "th"
      ],
      [
        "Lon",
        "don"
      ],
      [
        "E",
        "ag"
      ],
      [
        "G",
        "loin"
      ],
      [
        "M",
        "ay"
      ],
      [
        "T",
        "ook"
      ],
      [
        "c",
        "ord"
      ],
      [
        "g",
        "ing"
      ],
      [
        "l",
        "isten"
      ],
      [
        "m",
        "ain"
      ],
      [
        "o",
        "s"
      ],
      [
        "p",
        "ping"
      ],
      [
        "r",
        "ate"
      ],
      [
        "s",
        "us"
      ],
      [
        "s",
        "ne"
      ],
      [
        "s",
        "outh"
      ],
      [
        "t",
        "ail"
      ],
      [
        "w",
        "ished"
      ],
      [
        "in",
        "king"
      ],
      [
        "to",
        "ri"
      ],
      [
        "ll",
        "ent"
      ],
      [
        "st",
        "ate"
      ],
      [
        "me",
        "mor"
      ],
      [
        "be",
        "come"
      ],
      [
        "id",
        "ing"
      ],
      [
        "ac",
        "ter"
      ],
      [
        "no",
        "ti"
      ],
      [
        "ch",
        "ang"
      ],
      [
        "un",
        "less"
      ],
      [
        "oo",
        "log"
      ],
      [
        "ent",
        "s"
      ],
      [
        "am",
        "ed"
      ],
      [
        "pe",
        "red"
      ],
      [
        "de",
        "c"
      ],
      [
        "de",
        "light"
      ],
      [
        "de",
        "ath"
      ],
      [
        "ck",
        "ing"
      ],
      [
        "pl",
        "ans"
      ],
      [
        "ap",
        "s"
      ],
      [
        "ous",
        "ly"
      ],
      [
        "hall",
        "s"
      ],
      [
        "gr",
        "and"
      ],
      [
        "con",
        "v"
      ],
      [
        "com",
        "ple"
      ],
      [
        "who",
        "m"
      ],
      [
        "dr",
        "ink"
      ],
      [
        "str",
        "uck"
      ],
      [
        "cr",
        "ow"
      ],
      [
        "ci",
        "ent"
      ],
      [
        "pro",
        "ceed"
      ],
      [
        "cl",
        "oud"
      ],
      [
        "should",
        "er"
      ],
      [
        "should",
        "ers"
      ],
      [
        "ct",
        "ure"
      ],
      [
        "went",
        "y"
      ],
      [
        "hap",
        "ter"
      ],
      [
        "pr",
        "ise"
      ],
      [
        "mor",
        "row"
      ],
      [
        "act",
        "ly"
      ],
      [
        "act",
        "ually"
      ],
      [
        "cour",
        "age"
      ],
      [
        "ser",
        "vice"
      ],
      [
        "stre",
        "ng"
      ],
      [
        "dre",
        "ss"
      ],
      [
        "sho",
        "re"
      ],
      [
        "att",
        "ack"
      ],
      [
        "happ",
        "y"
      ],
      [
        "reme",
        "m"
      ],
      [
        "thin",
        "king"
      ],
      [
        "foo",
        "l"
      ]
    ]
  }
}