{
  "version": "1.0",
  "truncation": null,
  "padding": null,
  "added_tokens": [
    {
      "id": 0,
      "content": "[UNK]",
      "single_word": false,
      "lstrip": false,
      "rstrip": false,
      "normalized": false,
      "special": true
    }
  ],
  "normalizer": null,
  "pre_tokenizer": {
    "type": "Whitespace"
  },
  "post_processor": null,
  "decoder": null,
  "model": {
    "type": "BPE",
    "dropout": null,
    "unk_token": "[UNK]",
    "continuing_subword_prefix": null,
    "end_of_word_suffix": null,
    "fuse_unk": false,
    "byte_fallback": false,
    "ignore_merges": false,
    "vocab": {
      "[UNK]": 0,
      "!": 1,
      "\"": 2,
      "&": 3,
      "'": 4,
      "(": 5,
      ")": 6,
      ",": 7,
      "-": 8,
      ".": 9,
      "/": 10,
      "0": 11,
      "1": 12,
      "2": 13,
      "3": 14,
      "4": 15,
      "5": 16,
      "6": 17,
      "7": 18,
      "8": 19,
      "9": 20,
      ":": 21,
      ";": 22,
      "?": 23,
      "A": 24,
      "B": 25,
      "C": 26,
      "D": 27,
      "E": 28,
      "F": 29,
      "G": 30,
      "H": 31,
      "I": 32,
      "J": 33,
      "K": 34,
      "L": 35,
      "M": 36,
      "N": 37,
      "O": 38,
      "P": 39,
      "Q": 40,
      "R": 41,
      "S": 42,
      "T": 43,
      "U": 44,
      "V": 45,
      "W": 46,
      "X": 47,
      "Y": 48,
      "Z": 49,
      "[": 50,
      "\\": 51,
      "a": 52,
      "b": 53,
      "c": 54,
      "d": 55,
      "e": 56,
      "f": 57,
      "g": 58,
      "h": 59,
      "i": 60,
      "j": 61,
      "k": 62,
      "l": 63,
      "m": 64,
      "n": 65,
      "o": 66,
      "p": 67,
      "q": 68,
      "r": 69,
      "s": 70,
      "t": 71,
      "u": 72,
      "v": 73,
      "w": 74,
      "x": 75,
      "y": 76,
      "z": 77,
      "{": 78,
      "}": 79,
      "—": 80,
      "‘": 81,
      "’": 82,
      "“": 83,
      "”": 84,
      "th": 85,
      "the": 86,
      "in": 87,
      "an": 88,
      "re": 89,
      "ou": 90,
      "and": 91,
      "on": 92,
      "er": 93,
      "at": 94,
      "he": 95,
      "as": 96,
      "ed": 97,
      "en": 98,
      "of": 99,
      "to": 100,
      "ing": 101,
      "or": 102,
      "ll": 103,
      "is": 104,
      "ar": 105,
      "es": 106,
      "it": 107,
      "ha": 108,
      "le": 109,
      "st": 110,
      "me": 111,
      "be": 112,
      "ow": 113,
      "we": 114,
      "was": 115,
      "se": 116,
      "id": 117,
      "ld": 118,
      "hi": 119,
      "ro": 120,
      "ve": 121,
      "gh": 122,
      "wi": 123,
      "ac": 124,
      "that": 125,
      "no": 126,
      "ly": 127,
      "al": 128,
      "ch": 129,
      "all": 130,
      "ver": 131,
      "you": 132,
      "his": 133,
      "had": 134,
      "ut": 135,
      "li": 136,
      "ir": 137,
      "ay": 138,
      "The": 139,
      "for": 140,
      "ad": 141,
      "un": 142,
      "ri": 143,
      "ght": 144,
      "with": 145,
      "ould": 146,
      "so": 147,
      "ti": 148,
      "sa": 149,
      "oo": 150,
      "they": 151,
      "ent": 152,
      "up": 153,
      "ke": 154,
      "ag": 155,
      "ce": 156,
      "ho": 157,
      "were": 158,
      "out": 159,
      "oun": 160,
      "not": 161,
      "ur": 162,
      "co": 163,
      "our": 164,
      "am": 165,
      "ain": 166,
      "bo": 167,
      "mo": 168,
      "one": 169,
      "us": 170,
      "il": 171,
      "whi": 172,
      "ne": 173,
      "ter": 174,
      "pe": 175,
      "fe": 176,
      "red": 177,
      "ge": 178,
      "have": 179,
      "ard": 180,
      "go": 181,
      "said": 182,
      "ca": 183,
      "ther": 184,
      "ab": 185,
      "my": 186,
      "ong": 187,
      "them": 188,
      "which": 189,
      "rom": 190,
      "but": 191,
      "hat": 192,
      "de": 193,
      "ess": 194,
      "him": 195,
      "own": 196,
      "ck": 197,
      "um": 198,
      "are": 199,
      "ast": 200,
      "from": 201,
      "their": 202,
      "fo": 203,
      "ves": 204,
      "whe": 205,
      "sh": 206,
      "lo": 207,
      "po": 208,
      "ion": 209,
      "ack": 210,
      "could": 211,
      "if": 212,
      "ound": 213,
      "bl": 214,
      "ood": 215,
      "some": 216,
      "there": 217,
      "do": 218,
      "pl": 219,
      "ind": 220,
      "He": 221,
      "ure": 222,
      "way": 223,
      "any": 224,
      "now": 225,
      "gre": 226,
      "ap": 227,
      "end": 228,
      "ex": 229,
      "It": 230,
      "thing": 231,
      "et": 232,
      "Bil": 233,
      "Bilbo": 234,
      "by": 235,
      "fi": 236,
      "ous": 237,
      "very": 238,
      "this": 239,
      "fore": 240,
      "tr": 241,
      "!”": 242,
      "see": 243,
      "ough": 244,
      "ul": 245,
      "ust": 246,
      "ide": 247,
      "ight": 248,
      "qu": 249,
      "would": 250,
      "te": 251,
      "down": 252,
      "ted": 253,
      "king": 254,
      "ven": 255,
      "upon": 256,
      "hall": 257,
      "war": 258,
      "gr": 259,
      "der": 260,
      "can": 261,
      "br": 262,
      "ill": 263,
      "su": 264,
      "into": 265,
      "been": 266,
      "hed": 267,
      ".\"": 268,
      "like": 269,
      "more": 270,
      "ss": 271,
      "ate": 272,
      "ord": 273,
      "ped": 274,
      "ake": 275,
      "ked": 276,
      "ger": 277,
      "con": 278,
      "will": 279,
      "too": 280,
      "com": 281,
      "sp": 282,
      "lf": 283,
      "back": 284,
      "ep": 285,
      "what": 286,
      "who": 287,
      "--": 288,
      "tain": 289,
      "when": 290,
      "long": 291,
      "tre": 292,
      "ins": 293,
      "came": 294,
      "We": 295,
      "im": 296,
      "hor": 297,
      "great": 298,
      "loo": 299,
      "your": 300,
      "other": 301,
      "ers": 302,
      "ace": 303,
      "ic": 304,
      "ts": 305,
      ",”": 306,
      "tion": 307,
      "man": 308,
      "af": 309,
      "el": 310,
      "before": 311,
      "pre": 312,
      "time": 313,
      "op": 314,
      "But": 315,
      "ark": 316,
      "over": 317,
      "itt": 318,
      "dwar": 319,
      "dr": 320,
      "mer": 321,
      "nd": 322,
      "au": 323,
      "str": 324,
      "ought": 325,
      "ite": 326,
      ".”": 327,
      "day": 328,
      "low": 329,
      "again": 330,
      "come": 331,
      "cr": 332,
      "ant": 333,
      "They": 334,
      "ey": 335,
      "urn": 336,
      "about": 337,
      "ble": 338,
      "ci": 339,
      "bit": 340,
      "able": 341,
      "get": 342,
      "wo": 343,
      "ment": 344,
      "dis": 345,
      "than": 346,
      "ation": 347,
      ",\"": 348,
      "light": 349,
      "ever": 350,
      "only": 351,
      "est": 352,
      "thr": 353,
      "There": 354,
      "dwarves": 355,
      "ak": 356,
      "per": 357,
      "ward": 358,
      "ade": 359,
      "ountain": 360,
      "pro": 361,
      "ally": 362,
      "cl": 363,
      "ass": 364,
      "turn": 365,
      "self": 366,
      "hand": 367,
      "ink": 368,
      "men": 369,
      "should": 370,
      "ittle": 371,
      "ct": 372,
      "cre": 373,
      "good": 374,
      "little": 375,
      "So": 376,
      "ive": 377,
      "where": 378,
      "led": 379,
      "last": 380,
      "its": 381,
      "Thor": 382,
      "did": 383,
      "Thorin": 384,
      "med": 385,
      "off": 386,
      "under": 387,
      "after": 388,
      "ick": 389,
      "ty": 390,
      "enger": 391,
      "still": 392,
      "read": 393,
      "even": 394,
      "far": 395,
      "ance": 396,
      "head": 397,
      "ath": 398,
      "wor": 399,
      "ig": 400,
      "par": 401,
      "then": 402,
      "mb": 403,
      "most": 404,
      "know": 405,
      "ning": 406,
      "You": 407,
      "ence": 408,
      "Chall": 409,
      "che": 410,
      "dark": 411,
      "ried": 412,
      "got": 413,
      "Challenger": 414,
      "wat": 415,
      "rof": 416,
      "ans": 417,
      "In": 418,
      "?\"": 419,
      "made": 420,
      "ting": 421,
      "dd": 422,
      "gl": 423,
      "round": 424,
      "ine": 425,
      "gu": 426,
      "went": 427,
      "aw": 428,
      "how": 429,
      "right": 430,
      "And": 431,
      "ved": 432,
      "rofess": 433,
      "Then": 434,
      "through": 435,
      "side": 436,
      "ull": 437,
      "here": 438,
      "ave": 439,
      "may": 440,
      "well": 441,
      "fl": 442,
      "thought": 443,
      "say": 444,
      "ry": 445,
      "rofessor": 446,
      "while": 447,
      "ish": 448,
      "must": 449,
      "air": 450,
      "away": 451,
      "ful": 452,
      "wood": 453,
      "alf": 454,
      "fell": 455,
      "don": 456,
      "beg": 457,
      "What": 458,
      "hap": 459,
      "Professor": 460,
      "ft": 461,
      "less": 462,
      "spe": 463,
      "ort": 464,
      "Gand": 465,
      "has": 466,
      "sm": 467,
      "age": 468,
      "Gandalf": 469,
      "gobl": 470,
      "di": 471,
      "mu": 472,
      "night": 473,
      "No": 474,
      "ang": 475,
      "ummer": 476,
      "irst": 477,
      "door": 478,
      "ened": 479,
      "bbit": 480,
      "never": 481,
      "?”": 482,
      "ear": 483,
      "new": 484,
      "ach": 485,
      "many": 486,
      "two": 487,
      "sto": 488,
      "vo": 489,
      "Lord": 490,
      "old": 491,
      "vi": 492,
      "think": 493,
      "hobbit": 494,
      "found": 495,
      "hun": 496,
      "pt": 497,
      "ature": 498,
      "lee": 499,
      "eyes": 500,
      "much": 501,
      "cle": 502,
      "hind": 503,
      "just": 504,
      "ue": 505,
      "such": 506,
      "first": 507,
      "wards": 508,
      "use": 509,
      "dden": 510,
      "ather": 511,
      "car": 512,
      "des": 513,
      "won": 514,
      "word": 515,
      "res": 516,
      "these": 517,
      "Summer": 518,
      "though": 519,
      "ving": 520,
      "Summerlee": 521,
      "ring": 522,
      "bre": 523,
      "Go": 524,
      "coun": 525,
      "saw": 526,
      "pr": 527,
      "ten": 528,
      "ms": 529,
      "bet": 530,
      "That": 531,
      "mor": 532,
      "Mountain": 533,
      "cli": 534,
      "agon": 535,
      "hear": 536,
      "behind": 537,
      "agg": 538,
      "rock": 539,
      "act": 540,
      "ared": 541,
      "ows": 542,
      "trees": 543,
      "fri": 544,
      "might": 545,
      "heard": 546,
      "goblins": 547,
      "ies": 548,
      "Jo": 549,
      "shall": 550,
      "seemed": 551,
      "looked": 552,
      "!\"": 553,
      "water": 554,
      "friend": 555,
      "find": 556,
      "amp": 557,
      "every": 558,
      "land": 559,
      "ron": 560,
      "wa": 561,
      "cour": 562,
      "clo": 563,
      "ff": 564,
      "hel": 565,
      "ross": 566,
      "hn": 567,
      "left": 568,
      "les": 569,
      "sing": 570,
      "ated": 571,
      "John": 572,
      "abo": 573,
      "vent": 574,
      "place": 575,
      "sup": 576,
      "soon": 577,
      "poin": 578,
      "ity": 579,
      "yet": 580,
      "til": 581,
      "among": 582,
      "pped": 583,
      "az": 584,
      "ple": 585,
      "llow": 586,
      "nothing": 587,
      "fire": 588,
      "ls": 589,
      "uck": 590,
      "ise": 591,
      "tic": 592,
      "dragon": 593,
      "make": 594,
      "seen": 595,
      "above": 596,
      "Be": 597,
      "sha": 598,
      "full": 599,
      "lay": 600,
      "ank": 601,
      "river": 602,
      "feet": 603,
      "As": 604,
      "sudden": 605,
      "Mr": 606,
      "ef": 607,
      "tal": 608,
      "wh": 609,
      "ches": 610,
      "mountain": 611,
      "outh": 612,
      "ist": 613,
      "himself": 614,
      "rem": 615,
      "near": 616,
      "appe": 617,
      "open": 618,
      "call": 619,
      "face": 620,
      "ser": 621,
      "xt": 622,
      "stre": 623,
      "ling": 624,
      "lves": 625,
      "ness": 626,
      "rest": 627,
      "until": 628,
      "ready": 629,
      "bus": 630,
      "ice": 631,
      "thre": 632,
      "let": 633,
      "things": 634,
      "Now": 635,
      "sil": 636,
      "ction": 637,
      "once": 638,
      "star": 639,
      "something": 640,
      "ched": 641,
      "pass": 642,
      "ings": 643,
      "hard": 644,
      "put": 645,
      "aug": 646,
      "row": 647,
      "sent": 648,
      "creature": 649,
      "dre": 650,
      "stand": 651,
      "Well": 652,
      "aking": 653,
      "cried": 654,
      "orn": 655,
      "without": 656,
      "ale": 657,
      "gs": 658,
      "ng": 659,
      "ob": 660,
      "sho": 661,
      "going": 662,
      "deep": 663,
      "high": 664,
      "along": 665,
      "If": 666,
      "fall": 667,
      "try": 668,
      "tree": 669,
      "mar": 670,
      "sur": 671,
      "bro": 672,
      "iz": 673,
      "nor": 674,
      "ste": 675,
      "turned": 676,
      "om": 677,
      "sed": 678,
      "ili": 679,
      "ose": 680,
      "path": 681,
      "fic": 682,
      "look": 683,
      "This": 684,
      "ping": 685,
      "ange": 686,
      "ook": 687,
      "black": 688,
      "course": 689,
      "Bagg": 690,
      "dif": 691,
      "lt": 692,
      "ones": 693,
      "feel": 694,
      "began": 695,
      "Baggins": 696,
      "dan": 697,
      "sl": 698,
      "set": 699,
      "gold": 700,
      "mat": 701,
      "take": 702,
      "till": 703,
      "At": 704,
      "sk": 705,
      "sat": 706,
      "ground": 707,
      "mon": 708,
      "run": 709,
      "sit": 710,
      "stoo": 711,
      "moment": 712,
      "took": 713,
      "cas": 714,
      "mis": 715,
      "tun": 716,
      "tor": 717,
      "same": 718,
      "ople": 719,
      "small": 720,
      "Ind": 721,
      "cur": 722,
      "those": 723,
      "ird": 724,
      "used": 725,
      "tell": 726,
      "Indi": 727,
      "ame": 728,
      "chi": 729,
      "lar": 730,
      "lled": 731,
      "sun": 732,
      "llum": 733,
      "ways": 734,
      "forest": 735,
      "days": 736,
      "wonder": 737,
      "ious": 738,
      "att": 739,
      "dist": 740,
      "camp": 741,
      "give": 742,
      "ru": 743,
      "wall": 744,
      "ined": 745,
      "quite": 746,
      "cha": 747,
      "ible": 748,
      "ince": 749,
      "aster": 750,
      "across": 751,
      "ign": 752,
      "each": 753,
      "hu": 754,
      "pon": 755,
      "sc": 756,
      "asked": 757,
      "ary": 758,
      "stone": 759,
      "morning": 760,
      "spo": 761,
      "ud": 762,
      "ren": 763,
      "alin": 764,
      "ards": 765,
      "help": 766,
      "venture": 767,
      "Sm": 768,
      "ail": 769,
      "cted": 770,
      "wr": 771,
      "lls": 772,
      "people": 773,
      "poss": 774,
      "tered": 775,
      "elves": 776,
      "happ": 777,
      "mes": 778,
      "shad": 779,
      "ond": 780,
      "tow": 781,
      "life": 782,
      "dou": 783,
      "enough": 784,
      "young": 785,
      "lie": 786,
      "rible": 787,
      "comp": 788,
      "suddenly": 789,
      "On": 790,
      "aid": 791,
      "another": 792,
      "ished": 793,
      "bran": 794,
      "clear": 795,
      "Smaug": 796,
      "oud": 797,
      "ene": 798,
      "ush": 799,
      "friends": 800,
      "Th": 801,
      "bed": 802,
      "cer": 803,
      "ily": 804,
      "sound": 805,
      "edge": 806,
      "toge": 807,
      "half": 808,
      "ket": 809,
      "deed": 810,
      "ions": 811,
      "brought": 812,
      "together": 813,
      "fast": 814,
      "kn": 815,
      "ken": 816,
      "being": 817,
      "alone": 818,
      "av": 819,
      "ks": 820,
      "whole": 821,
      "Gollum": 822,
      "wait": 823,
      "gave": 824,
      "jo": 825,
      "ons": 826,
      "ween": 827,
      "ult": 828,
      "between": 829,
      "three": 830,
      "stood": 831,
      "mp": 832,
      "sure": 833,
      "slow": 834,
      "wind": 835,
      "reme": 836,
      "ering": 837,
      "also": 838,
      "lost": 839,
      "expe": 840,
      "doub": 841,
      "done": 842,
      "thin": 843,
      "really": 844,
      "few": 845,
      "Some": 846,
      "ront": 847,
      "gi": 848,
      "gone": 849,
      "mind": 850,
      "green": 851,
      "others": 852,
      "dire": 853,
      "Bo": 854,
      "cent": 855,
      "always": 856,
      "adventure": 857,
      "All": 858,
      "dy": 859,
      "foo": 860,
      "mit": 861,
      "hes": 862,
      "follow": 863,
      "coming": 864,
      "world": 865,
      "part": 866,
      "danger": 867,
      "since": 868,
      "aces": 869,
      "quick": 870,
      "hands": 871,
      "point": 872,
      "mountains": 873,
      "huge": 874,
      "For": 875,
      "dred": 876,
      "pi": 877,
      "idd": 878,
      "alley": 879,
      "hundred": 880,
      "cliff": 881,
      "bur": 882,
      "gg": 883,
      "je": 884,
      "sci": 885,
      "ens": 886,
      "top": 887,
      "towards": 888,
      "ars": 889,
      "already": 890,
      "hope": 891,
      "strange": 892,
      "mber": 893,
      "town": 894,
      "bar": 895,
      "estion": 896,
      "selves": 897,
      "ider": 898,
      "pose": 899,
      "exce": 900,
      "white": 901,
      "large": 902,
      "fle": 903,
      "tro": 904,
      "below": 905,
      "plate": 906,
      "ces": 907,
      "cri": 908,
      "knew": 909,
      "table": 910,
      "valley": 911,
      "qui": 912,
      "guess": 913,
      "voice": 914,
      "Balin": 915,
      "His": 916,
      "Ro": 917,
      "bird": 918,
      "ced": 919,
      "four": 920,
      "front": 921,
      "hur": 922,
      "hum": 923,
      "tin": 924,
      "ery": 925,
      "hen": 926,
      "wiz": 927,
      "ushed": 928,
      "cause": 929,
      "better": 930,
      "pleas": 931,
      "kind": 932,
      "enti": 933,
      "moon": 934,
      "against": 935,
      "tunne": 936,
      "plateau": 937,
      "eag": 938,
      "ered": 939,
      "her": 940,
      "lad": 941,
      "lake": 942,
      "ned": 943,
      "ome": 944,
      "ouse": 945,
      "ung": 946,
      "keep": 947,
      "cold": 948,
      "next": 949,
      "haps": 950,
      "passed": 951,
      "flo": 952,
      "min": 953,
      "leep": 954,
      "step": 955,
      "hold": 956,
      "Indians": 957,
      "To": 958,
      "fair": 959,
      "sn": 960,
      "inter": 961,
      "mean": 962,
      "vered": 963,
      "ute": 964,
      "bled": 965,
      "however": 966,
      "climb": 967,
      "Wh": 968,
      "ber": 969,
      "bes": 970,
      "pers": 971,
      "ash": 972,
      "assa": 973,
      "form": 974,
      "forward": 975,
      "iles": 976,
      "ular": 977,
      "words": 978,
      "Beorn": 979,
      "direction": 980,
      "When": 981,
      "sign": 982,
      "vis": 983,
      "arm": 984,
      "times": 985,
      "need": 986,
      "cond": 987,
      "press": 988,
      "strong": 989,
      "break": 990,
      "stream": 991,
      "doubt": 992,
      "South": 993,
      "big": 994,
      "wal": 995,
      "ask": 996,
      "ching": 997,
      "felt": 998,
      "question": 999
    },
    "merges": [
      [
        "t",
        "h"
      ],
      [
        "th",
        "e"
      ],
      [
        "i",
        "n"
      ],
      [
        "a",
        "n"
      ],
      [
        "r",
        "e"
      ],
      [
        "o",
        "u"
      ],
      [
        "an",
        "d"
      ],
      [
        "o",
        "n"
      ],
      [
        "e",
        "r"
      ],
      [
        "a",
        "t"
      ],
      [
        "h",
        "e"
      ],
      [
        "a",
        "s"
      ],
      [
        "e",
        "d"
      ],
      [
        "e",
        "n"
      ],
      [
        "o",
        "f"
      ],
      [
        "t",
        "o"
      ],
      [
        "in",
        "g"
      ],
      [
        "o",
        "r"
      ],
      [
        "l",
        "l"
      ],
      [
        "i",
        "s"
      ],
      [
        "a",
        "r"
      ],
      [
        "e",
        "s"
      ],
      [
        "i",
        "t"
      ],
      [
        "h",
        "a"
      ],
      [
        "l",
        "e"
      ],
      [
        "s",
        "t"
      ],
      [
        "m",
        "e"
      ],
      [
        "b",
        "e"
      ],
      [
        "o",
        "w"
      ],
      [
        "w",
        "e"
      ],
      [
        "w",
        "as"
      ],
      [
        "s",
        "e"
      ],
      [
        "i",
        "d"
      ],
      [
        "l",
        "d"
      ],
      [
        "h",
        "i"
      ],
      [
        "r",
        "o"
      ],
      [
        "v",
        "e"
      ],
      [
        "g",
        "h"
      ],
      [
        "w",
        "i"
      ],
      [
        "a",
        "c"
      ],
      [
        "th",
        "at"
      ],
      [
        "n",
        "o"
      ],
      [
        "l",
        "y"
      ],
      [
        "a",
        "l"
      ],
      [
        "c",
        "h"
      ],
      [
        "a",
        "ll"
      ],
      [
        "v",
        "er"
      ],
      [
        "y",
        "ou"
      ],
      [
        "h",
        "is"
      ],
      [
        "ha",
        "d"
      ],
      [
        "u",
        "t"
      ],
      [
        "l",
        "i"
      ],
      [
        "i",
        "r"
      ],
      [
        "a",
        "y"
      ],
      [
        "T",
        "he"
      ],
      [
        "f",
        "or"
      ],
      [
        "a",
        "d"
      ],
      [
        "u",
        "n"
      ],
      [
        "r",
        "i"
      ],
      [
        "gh",
        "t"
      ],
      [
        "wi",
        "th"
      ],
      [
        "ou",
        "ld"
      ],
      [
        "s",
        "o"
      ],
      [
        "t",
        "i"
      ],
      [
        "s",
        "a"
      ],
      [
        "o",
        "o"
      ],
      [
        "the",
        "y"
      ],
      [
        "en",
        "t"
      ],
      [
        "u",
        "p"
      ],
      [
        "k",
        "e"
      ],
      [
        "a",
        "g"
      ],
      [
        "c",
        "e"
      ],
      [
        "h",
        "o"
      ],
      [
        "we",
        "re"
      ],
      [
        "ou",
        "t"
      ],
      [
        "ou",
        "n"
      ],
      [
        "no",
        "t"
      ],
      [
        "u",
        "r"
      ],
      [
        "c",
        "o"
      ],
      [
        "ou",
        "r"
      ],
      [
        "a",
        "m"
      ],
      [
        "a",
        "in"
      ],
      [
        "b",
        "o"
      ],
      [
        "m",
        "o"
      ],
      [
        "on",
        "e"
      ],
      [
        "u",
        "s"
      ],
      [
        "i",
        "l"
      ],
      [
        "w",
        "hi"
      ],
      [
        "n",
        "e"
      ],
      [
        "t",
        "er"
      ],
      [
        "p",
        "e"
      ],
      [
        "f",
        "e"
      ],
      [
        "re",
        "d"
      ],
      [
        "g",
        "e"
      ],
      [
        "ha",
        "ve"
      ],
      [
        "ar",
        "d"
      ],
      [
        "g",
        "o"
      ],
      [
        "sa",
        "id"
      ],
      [
        "c",
        "a"
      ],
      [
        "the",
        "r"
      ],
      [
        "a",
        "b"
      ],
      [
        "m",
        "y"
      ],
      [
        "on",
        "g"
      ],
      [
        "the",
        "m"
      ],
      [
        "whi",
        "ch"
      ],
      [
        "ro",
        "m"
      ],
      [
        "b",
        "ut"
      ],
      [
        "h",
        "at"
      ],
      [
        "d",
        "e"
      ],
      [
        "es",
        "s"
      ],
      [
        "hi",
        "m"
      ],
      [
        "ow",
        "n"
      ],
      [
        "c",
        "k"
      ],
      [
        "u",
        "m"
      ],
      [
        "a",
        "re"
      ],
      [
        "as",
        "t"
      ],
      [
        "f",
        "rom"
      ],
      [
        "the",
        "ir"
      ],
      [
        "f",
        "o"
      ],
      [
        "v",
        "es"
      ],
      [
        "w",
        "he"
      ],
      [
        "s",
        "h"
      ],
      [
        "l",
        "o"
      ],
      [
        "p",
        "o"
      ],
      [
        "i",
        "on"
      ],
      [
        "ac",
        "k"
      ],
      [
        "c",
        "ould"
      ],
      [
        "i",
        "f"
      ],
      [
        "oun",
        "d"
      ],
      [
        "b",
        "l"
      ],
      [
        "oo",
        "d"
      ],
      [
        "so",
        "me"
      ],
      [
        "the",
        "re"
      ],
      [
        "d",
        "o"
      ],
      [
        "p",
        "l"
      ],
      [
        "in",
        "d"
      ],
      [
        "H",
        "e"
      ],
      [
        "u",
        "re"
      ],
      [
        "w",
        "ay"
      ],
      [
        "an",
        "y"
      ],
      [
        "n",
        "ow"
      ],
      [
        "g",
        "re"
      ],
      [
        "a",
        "p"
      ],
      [
        "en",
        "d"
      ],
      [
        "e",
        "x"
      ],
      [
        "I",
        "t"
      ],
      [
        "th",
        "ing"
      ],
      [
        "e",
        "t"
      ],
      [
        "B",
        "il"
      ],
      [
        "Bil",
        "bo"
      ],
      [
        "b",
        "y"
      ],
      [
        "f",
        "i"
      ],
      [
        "ou",
        "s"
      ],
      [
        "ver",
        "y"
      ],
      [
        "th",
        "is"
      ],
      [
        "fo",
        "re"
      ],
      [
        "t",
        "r"
      ],
      [
        "!",
        "”"
      ],
      [
        "se",
        "e"
      ],
      [
        "ou",
        "gh"
      ],
      [
        "u",
        "l"
      ],
      [
        "u",
        "st"
      ],
      [
        "id",
        "e"
      ],
      [
        "i",
        "ght"
      ],
      [
        "q",
        "u"
      ],
      [
        "w",
        "ould"
      ],
      [
        "t",
        "e"
      ],
      [
        "d",
        "own"
      ],
      [
        "t",
        "ed"
      ],
      [
        "k",
        "ing"
      ],
      [
        "v",
        "en"
      ],
      [
        "up",
        "on"
      ],
      [
        "ha",
        "ll"
      ],
      [
        "w",
        "ar"
      ],
      [
        "g",
        "r"
      ],
      [
        "d",
        "er"
      ],
      [
        "c",
        "an"
      ],
      [
        "b",
        "r"
      ],
      [
        "i",
        "ll"
      ],
      [
        "s",
        "u"
      ],
      [
        "in",
        "to"
      ],
      [
        "be",
        "en"
      ],
      [
        "he",
        "d"
      ],
      [
        ".",
        "\""
      ],
      [
        "li",
        "ke"
      ],
      [
        "mo",
        "re"
      ],
      [
        "s",
        "s"
      ],
      [
        "at",
        "e"
      ],
      [
        "or",
        "d"
      ],
      [
        "p",
        "ed"
      ],
      [
        "a",
        "ke"
      ],
      [
        "k",
        "ed"
      ],
      [
        "g",
        "er"
      ],
      [
        "c",
        "on"
      ],
      [
        "wi",
        "ll"
      ],
      [
        "to",
        "o"
      ],
      [
        "co",
        "m"
      ],
      [
        "s",
        "p"
      ],
      [
        "l",
        "f"
      ],
      [
        "b",
        "ack"
      ],
      [
        "e",
        "p"
      ],
      [
        "w",
        "hat"
      ],
      [
        "w",
        "ho"
      ],
      [
        "-",
        "-"
      ],
      [
        "t",
        "ain"
      ],
      [
        "whe",
        "n"
      ],
      [
        "l",
        "ong"
      ],
      [
        "t",
        "re"
      ],
      [
        "in",
        "s"
      ],
      [
        "ca",
        "me"
      ],
      [
        "W",
        "e"
      ],
      [
        "i",
        "m"
      ],
      [
        "h",
        "or"
      ],
      [
        "gre",
        "at"
      ],
      [
        "l",
        "oo"
      ],
      [
        "you",
        "r"
      ],
      [
        "o",
        "ther"
      ],
      [
        "er",
        "s"
      ],
      [
        "ac",
        "e"
      ],
      [
        "i",
        "c"
      ],
      [
        "t",
        "s"
      ],
      [
        ",",
        "”"
      ],
      [
        "ti",
        "on"
      ],
      [
        "m",
        "an"
      ],
      [
        "a",
        "f"
      ],
      [
        "e",
        "l"
      ],
      [
        "be",
        "fore"
      ],
      [
        "p",
        "re"
      ],
      [
        "ti",
        "me"
      ],
      [
        "o",
        "p"
      ],
      [
        "B",
        "ut"
      ],
      [
        "ar",
        "k"
      ],
      [
        "o",
        "ver"
      ],
      [
        "it",
        "t"
      ],
      [
        "d",
        "war"
      ],
      [
        "d",
        "r"
      ],
      [
        "m",
        "er"
      ],
      [
        "n",
        "d"
      ],
      [
        "a",
        "u"
      ],
      [
        "st",
        "r"
      ],
      [
        "ou",
        "ght"
      ],
      [
        "it",
        "e"
      ],
      [
        ".",
        "”"
      ],
      [
        "d",
        "ay"
      ],
      [
        "l",
        "ow"
      ],
      [
        "ag",
        "ain"
      ],
      [
        "co",
        "me"
      ],
      [
        "c",
        "r"
      ],
      [
        "an",
        "t"
      ],
      [
        "The",
        "y"
      ],
      [
        "e",
        "y"
      ],
      [
        "ur",
        "n"
      ],
      [
        "ab",
        "out"
      ],
      [
        "b",
        "le"
      ],
      [
        "c",
        "i"
      ],
      [
        "b",
        "it"
      ],
      [
        "ab",
        "le"
      ],
      [
        "ge",
        "t"
      ],
      [
        "w",
        "o"
      ],
      [
        "m",
        "ent"
      ],
      [
        "d",
        "is"
      ],
      [
        "th",
        "an"
      ],
      [
        "at",
        "ion"
      ],
      [
        ",",
        "\""
      ],
      [
        "li",
        "ght"
      ],
      [
        "e",
        "ver"
      ],
      [
        "on",
        "ly"
      ],
      [
        "es",
        "t"
      ],
      [
        "th",
        "r"
      ],
      [
        "The",
        "re"
      ],
      [
        "dwar",
        "ves"
      ],
      [
        "a",
        "k"
      ],
      [
        "p",
        "er"
      ],
      [
        "w",
        "ard"
      ],
      [
        "ad",
        "e"
      ],
      [
        "oun",
        "tain"
      ],
      [
        "p",
        "ro"
      ],
      [
        "all",
        "y"
      ],
      [
        "c",
        "l"
      ],
      [
        "as",
        "s"
      ],
      [
        "t",
        "urn"
      ],
      [
        "se",
        "lf"
      ],
      [
        "h",
        "and"
      ],
      [
        "in",
        "k"
      ],
      [
        "m",
        "en"
      ],
      [
        "sh",
        "ould"
      ],
      [
        "itt",
        "le"
      ],
      [
        "c",
        "t"
      ],
      [
        "c",
        "re"
      ],
      [
        "g",
        "ood"
      ],
      [
        "l",
        "ittle"
      ],
      [
        "S",
        "o"
      ],
      [
        "i",
        "ve"
      ],
      [
        "whe",
        "re"
      ],
      [
        "l",
        "ed"
      ],
      [
        "l",
        "ast"
      ],
      [
        "it",
        "s"
      ],
      [
        "T",
        "hor"
      ],
      [
        "d",
        "id"
      ],
      [
        "Thor",
        "in"
      ],
      [
        "m",
        "ed"
      ],
      [
        "of",
        "f"
      ],
      [
        "un",
        "der"
      ],
      [
        "af",
        "ter"
      ],
      [
        "i",
        "ck"
      ],
      [
        "t",
        "y"
      ],
      [
        "en",
        "ger"
      ],
      [
        "st",
        "ill"
      ],
      [
        "re",
        "ad"
      ],
      [
        "e",
        "ven"
      ],
      [
        "f",
        "ar"
      ],
      [
        "an",
        "ce"
      ],
      [
        "he",
        "ad"
      ],
      [
        "a",
        "th"
      ],
      [
        "w",
        "or"
      ],
      [
        "i",
        "g"
      ],
      [
        "p",
        "ar"
      ],
      [
        "the",
        "n"
      ],
      [
        "m",
        "b"
      ],
      [
        "mo",
        "st"
      ],
      [
        "k",
        "now"
      ],
      [
        "n",
        "ing"
      ],
      [
        "Y",
        "ou"
      ],
      [
        "en",
        "ce"
      ],
      [
        "C",
        "hall"
      ],
      [
        "c",
        "he"
      ],
      [
        "d",
        "ark"
      ],
      [
        "ri",
        "ed"
      ],
      [
        "go",
        "t"
      ],
      [
        "Chall",
        "enger"
      ],
      [
        "w",
        "at"
      ],
      [
        "r",
        "of"
      ],
      [
        "an",
        "s"
      ],
      [
        "I",
        "n"
      ],
      [
        "?",
        "\""
      ],
      [
        "m",
        "ade"
      ],
      [
        "t",
        "ing"
      ],
      [
        "d",
        "d"
      ],
      [
        "g",
        "l"
      ],
      [
        "r",
        "ound"
      ],
      [
        "in",
        "e"
      ],
      [
        "g",
        "u"
      ],
      [
        "w",
        "ent"
      ],
      [
        "a",
        "w"
      ],
      [
        "h",
        "ow"
      ],
      [
        "ri",
        "ght"
      ],
      [
        "A",
        "nd"
      ],
      [
        "v",
        "ed"
      ],
      [
        "rof",
        "ess"
      ],
      [
        "The",
        "n"
      ],
      [
        "thr",
        "ough"
      ],
      [
        "s",
        "ide"
      ],
      [
        "u",
        "ll"
      ],
      [
        "he",
        "re"
      ],
      [
        "a",
        "ve"
      ],
      [
        "m",
        "ay"
      ],
      [
        "we",
        "ll"
      ],
      [
        "f",
        "l"
      ],
      [
        "th",
        "ought"
      ],
      [
        "s",
        "ay"
      ],
      [
        "r",
        "y"
      ],
      [
        "rofess",
        "or"
      ],
      [
        "whi",
        "le"
      ],
      [
        "is",
        "h"
      ],
      [
        "m",
        "ust"
      ],
      [
        "a",
        "ir"
      ],
      [
        "a",
        "way"
      ],
      [
        "f",
        "ul"
      ],
      [
        "w",
        "ood"
      ],
      [
        "al",
        "f"
      ],
      [
        "fe",
        "ll"
      ],
      [
        "d",
        "on"
      ],
      [
        "be",
        "g"
      ],
      [
        "W",
        "hat"
      ],
      [
        "ha",
        "p"
      ],
      [
        "P",
        "rofessor"
      ],
      [
        "f",
        "t"
      ],
      [
        "l",
        "ess"
      ],
      [
        "s",
        "pe"
      ],
      [
        "or",
        "t"
      ],
      [
        "G",
        "and"
      ],
      [
        "h",
        "as"
      ],
      [
        "s",
        "m"
      ],
      [
        "ag",
        "e"
      ],
      [
        "Gand",
        "alf"
      ],
      [
        "go",
        "bl"
      ],
      [
        "d",
        "i"
      ],
      [
        "m",
        "u"
      ],
      [
        "n",
        "ight"
      ],
      [
        "N",
        "o"
      ],
      [
        "an",
        "g"
      ],
      [
        "um",
        "mer"
      ],
      [
        "ir",
        "st"
      ],
      [
        "do",
        "or"
      ],
      [
        "en",
        "ed"
      ],
      [
        "b",
        "bit"
      ],
      [
        "ne",
        "ver"
      ],
      [
        "?",
        "”"
      ],
      [
        "e",
        "ar"
      ],
      [
        "ne",
        "w"
      ],
      [
        "ac",
        "h"
      ],
      [
        "m",
        "any"
      ],
      [
        "t",
        "wo"
      ],
      [
        "s",
        "to"
      ],
      [
        "v",
        "o"
      ],
      [
        "L",
        "ord"
      ],
      [
        "o",
        "ld"
      ],
      [
        "v",
        "i"
      ],
      [
        "th",
        "ink"
      ],
      [
        "ho",
        "bbit"
      ],
      [
        "f",
        "ound"
      ],
      [
        "h",
        "un"
      ],
      [
        "p",
        "t"
      ],
      [
        "at",
        "ure"
      ],
      [
        "le",
        "e"
      ],
      [
        "ey",
        "es"
      ],
      [
        "mu",
        "ch"
      ],
      [
        "c",
        "le"
      ],
      [
        "h",
        "ind"
      ],
      [
        "j",
        "ust"
      ],
      [
        "u",
        "e"
      ],
      [
        "su",
        "ch"
      ],
      [
        "f",
        "irst"
      ],
      [
        "ward",
        "s"
      ],
      [
        "u",
        "se"
      ],
      [
        "dd",
        "en"
      ],
      [
        "a",
        "ther"
      ],
      [
        "c",
        "ar"
      ],
      [
        "d",
        "es"
      ],
      [
        "w",
        "on"
      ],
      [
        "w",
        "ord"
      ],
      [
        "re",
        "s"
      ],
      [
        "the",
        "se"
      ],
      [
        "S",
        "ummer"
      ],
      [
        "th",
        "ough"
      ],
      [
        "v",
        "ing"
      ],
      [
        "Summer",
        "lee"
      ],
      [
        "r",
        "ing"
      ],
      [
        "b",
        "re"
      ],
      [
        "G",
        "o"
      ],
      [
        "c",
        "oun"
      ],
      [
        "sa",
        "w"
      ],
      [
        "p",
        "r"
      ],
      [
        "t",
        "en"
      ],
      [
        "m",
        "s"
      ],
      [
        "be",
        "t"
      ],
      [
        "T",
        "hat"
      ],
      [
        "m",
        "or"
      ],
      [
        "M",
        "ountain"
      ],
      [
        "c",
        "li"
      ],
      [
        "ag",
        "on"
      ],
      [
        "he",
        "ar"
      ],
      [
        "be",
        "hind"
      ],
      [
        "ag",
        "g"
      ],
      [
        "ro",
        "ck"
      ],
      [
        "ac",
        "t"
      ],
      [
        "a",
        "red"
      ],
      [
        "ow",
        "s"
      ],
      [
        "tre",
        "es"
      ],
      [
        "f",
        "ri"
      ],
      [
        "m",
        "ight"
      ],
      [
        "he",
        "ard"
      ],
      [
        "gobl",
        "ins"
      ],
      [
        "i",
        "es"
      ],
      [
        "J",
        "o"
      ],
      [
        "s",
        "hall"
      ],
      [
        "see",
        "med"
      ],
      [
        "loo",
        "ked"
      ],
      [
        "!",
        "\""
      ],
      [
        "wat",
        "er"
      ],
      [
        "fri",
        "end"
      ],
      [
        "f",
        "ind"
      ],
      [
        "am",
        "p"
      ],
      [
        "e",
        "very"
      ],
      [
        "l",
        "and"
      ],
      [
        "r",
        "on"
      ],
      [
        "w",
        "a"
      ],
      [
        "c",
        "our"
      ],
      [
        "c",
        "lo"
      ],
      [
        "f",
        "f"
      ],
      [
        "he",
        "l"
      ],
      [
        "ro",
        "ss"
      ],
      [
        "h",
        "n"
      ],
      [
        "le",
        "ft"
      ],
      [
        "l",
        "es"
      ],
      [
        "s",
        "ing"
      ],
      [
        "at",
        "ed"
      ],
      [
        "Jo",
        "hn"
      ],
      [
        "a",
        "bo"
      ],
      [
        "v",
        "ent"
      ],
      [
        "pl",
        "ace"
      ],
      [
        "s",
        "up"
      ],
      [
        "so",
        "on"
      ],
      [
        "po",
        "in"
      ],
      [
        "it",
        "y"
      ],
      [
        "y",
        "et"
      ],
      [
        "ti",
        "l"
      ],
      [
        "am",
        "ong"
      ],
      [
        "p",
        "ped"
      ],
      [
        "a",
        "z"
      ],
      [
        "p",
        "le"
      ],
      [
        "ll",
        "ow"
      ],
      [
        "no",
        "thing"
      ],
      [
        "fi",
        "re"
      ],
      [
        "l",
        "s"
      ],
      [
        "u",
        "ck"
      ],
      [
        "is",
        "e"
      ],
      [
        "ti",
        "c"
      ],
      [
        "dr",
        "agon"
      ],
      [
        "m",
        "ake"
      ],
      [
        "se",
        "en"
      ],
      [
        "abo",
        "ve"
      ],
      [
        "B",
        "e"
      ],
      [
        "s",
        "ha"
      ],
      [
        "f",
        "ull"
      ],
      [
        "l",
        "ay"
      ],
      [
        "an",
        "k"
      ],
      [
        "ri",
        "ver"
      ],
      [
        "fe",
        "et"
      ],
      [
        "A",
        "s"
      ],
      [
        "su",
        "dden"
      ],
      [
        "M",
        "r"
      ],
      [
        "e",
        "f"
      ],
      [
        "t",
        "al"
      ],
      [
        "w",
        "h"
      ],
      [
        "che",
        "s"
      ],
      [
        "m",
        "ountain"
      ],
      [
        "ou",
        "th"
      ],
      [
        "is",
        "t"
      ],
      [
        "him",
        "self"
      ],
      [
        "re",
        "m"
      ],
      [
        "ne",
        "ar"
      ],
      [
        "ap",
        "pe"
      ],
      [
        "op",
        "en"
      ],
      [
        "c",
        "all"
      ],
      [
        "f",
        "ace"
      ],
      [
        "s",
        "er"
      ],
      [
        "x",
        "t"
      ],
      [
        "st",
        "re"
      ],
      [
        "l",
        "ing"
      ],
      [
        "l",
        "ves"
      ],
      [
        "n",
        "ess"
      ],
      [
        "re",
        "st"
      ],
      [
        "un",
        "til"
      ],
      [
        "read",
        "y"
      ],
      [
        "b",
        "us"
      ],
      [
        "i",
        "ce"
      ],
      [
        "th",
        "re"
      ],
      [
        "le",
        "t"
      ],
      [
        "thing",
        "s"
      ],
      [
        "N",
        "ow"
      ],
      [
        "s",
        "il"
      ],
      [
        "c",
        "tion"
      ],
      [
        "on",
        "ce"
      ],
      [
        "st",
        "ar"
      ],
      [
        "some",
        "thing"
      ],
      [
        "c",
        "hed"
      ],
      [
        "p",
        "ass"
      ],
      [
        "ing",
        "s"
      ],
      [
        "h",
        "ard"
      ],
      [
        "p",
        "ut"
      ],
      [
        "au",
        "g"
      ],
      [
        "r",
        "ow"
      ],
      [
        "s",
        "ent"
      ],
      [
        "cre",
        "ature"
      ],
      [
        "d",
        "re"
      ],
      [
        "st",
        "and"
      ],
      [
        "We",
        "ll"
      ],
      [
        "a",
        "king"
      ],
      [
        "c",
        "ried"
      ],
      [
        "or",
        "n"
      ],
      [
        "with",
        "out"
      ],
      [
        "a",
        "le"
      ],
      [
        "g",
        "s"
      ],
      [
        "n",
        "g"
      ],
      [
        "o",
        "b"
      ],
      [
        "s",
        "ho"
      ],
      [
        "go",
        "ing"
      ],
      [
        "de",
        "ep"
      ],
      [
        "hi",
        "gh"
      ],
      [
        "al",
        "ong"
      ],
      [
        "I",
        "f"
      ],
      [
        "f",
        "all"
      ],
      [
        "tr",
        "y"
      ],
      [
        "tre",
        "e"
      ],
      [
        "m",
        "ar"
      ],
      [
        "s",
        "ur"
      ],
      [
        "b",
        "ro"
      ],
      [
        "i",
        "z"
      ],
      [
        "n",
        "or"
      ],
      [
        "st",
        "e"
      ],
      [
        "turn",
        "ed"
      ],
      [
        "o",
        "m"
      ],
      [
        "s",
        "ed"
      ],
      [
        "i",
        "li"
      ],
      [
        "o",
        "se"
      ],
      [
        "p",
        "ath"
      ],
      [
        "fi",
        "c"
      ],
      [
        "loo",
        "k"
      ],
      [
        "T",
        "his"
      ],
      [
        "p",
        "ing"
      ],
      [
        "an",
        "ge"
      ],
      [
        "oo",
        "k"
      ],
      [
        "bl",
        "ack"
      ],
      [
        "cour",
        "se"
      ],
      [
        "B",
        "agg"
      ],
      [
        "d",
        "if"
      ],
      [
        "l",
        "t"
      ],
      [
        "on",
        "es"
      ],
      [
        "fe",
        "el"
      ],
      [
        "beg",
        "an"
      ],
      [
        "Bagg",
        "ins"
      ],
      [
        "d",
        "an"
      ],
      [
        "s",
        "l"
      ],
      [
        "se",
        "t"
      ],
      [
        "go",
        "ld"
      ],
      [
        "m",
        "at"
      ],
      [
        "t",
        "ake"
      ],
      [
        "ti",
        "ll"
      ],
      [
        "A",
        "t"
      ],
      [
        "s",
        "k"
      ],
      [
        "s",
        "at"
      ],
      [
        "gr",
        "ound"
      ],
      [
        "m",
        "on"
      ],
      [
        "r",
        "un"
      ],
      [
        "s",
        "it"
      ],
      [
        "s",
        "too"
      ],
      [
        "mo",
        "ment"
      ],
      [
        "too",
        "k"
      ],
      [
        "c",
        "as"
      ],
      [
        "m",
        "is"
      ],
      [
        "t",
        "un"
      ],
      [
        "to",
        "r"
      ],
      [
        "sa",
        "me"
      ],
      [
        "op",
        "le"
      ],
      [
        "sm",
        "all"
      ],
      [
        "I",
        "nd"
      ],
      [
        "c",
        "ur"
      ],
      [
        "th",
        "ose"
      ],
      [
        "ir",
        "d"
      ],
      [
        "us",
        "ed"
      ],
      [
        "te",
        "ll"
      ],
      [
        "Ind",
        "i"
      ],
      [
        "a",
        "me"
      ],
      [
        "c",
        "hi"
      ],
      [
        "l",
        "ar"
      ],
      [
        "ll",
        "ed"
      ],
      [
        "s",
        "un"
      ],
      [
        "ll",
        "um"
      ],
      [
        "way",
        "s"
      ],
      [
        "fore",
        "st"
      ],
      [
        "day",
        "s"
      ],
      [
        "won",
        "der"
      ],
      [
        "i",
        "ous"
      ],
      [
        "at",
        "t"
      ],
      [
        "dis",
        "t"
      ],
      [
        "c",
        "amp"
      ],
      [
        "g",
        "ive"
      ],
      [
        "r",
        "u"
      ],
      [
        "w",
        "all"
      ],
      [
        "in",
        "ed"
      ],
      [
        "qu",
        "ite"
      ],
      [
        "c",
        "ha"
      ],
      [
        "i",
        "ble"
      ],
      [
        "in",
        "ce"
      ],
      [
        "as",
        "ter"
      ],
      [
        "ac",
        "ross"
      ],
      [
        "ig",
        "n"
      ],
      [
        "e",
        "ach"
      ],
      [
        "h",
        "u"
      ],
      [
        "p",
        "on"
      ],
      [
        "s",
        "c"
      ],
      [
        "as",
        "ked"
      ],
      [
        "ar",
        "y"
      ],
      [
        "st",
        "one"
      ],
      [
        "mor",
        "ning"
      ],
      [
        "s",
        "po"
      ],
      [
        "u",
        "d"
      ],
      [
        "re",
        "n"
      ],
      [
        "al",
        "in"
      ],
      [
        "ard",
        "s"
      ],
      [
        "hel",
        "p"
      ],
      [
        "vent",
        "ure"
      ],
      [
        "S",
        "m"
      ],
      [
        "a",
        "il"
      ],
      [
        "c",
        "ted"
      ],
      [
        "w",
        "r"
      ],
      [
        "ll",
        "s"
      ],
      [
        "pe",
        "ople"
      ],
      [
        "po",
        "ss"
      ],
      [
        "te",
        "red"
      ],
      [
        "el",
        "ves"
      ],
      [
        "hap",
        "p"
      ],
      [
        "m",
        "es"
      ],
      [
        "s",
        "had"
      ],
      [
        "on",
        "d"
      ],
      [
        "to",
        "w"
      ],
      [
        "li",
        "fe"
      ],
      [
        "d",
        "ou"
      ],
      [
        "en",
        "ough"
      ],
      [
        "you",
        "ng"
      ],
      [
        "li",
        "e"
      ],
      [
        "ri",
        "ble"
      ],
      [
        "com",
        "p"
      ],
      [
        "sudden",
        "ly"
      ],
      [
        "O",
        "n"
      ],
      [
        "a",
        "id"
      ],
      [
        "an",
        "other"
      ],
      [
        "is",
        "hed"
      ],
      [
        "br",
        "an"
      ],
      [
        "cle",
        "ar"
      ],
      [
        "Sm",
        "aug"
      ],
      [
        "ou",
        "d"
      ],
      [
        "en",
        "e"
      ],
      [
        "us",
        "h"
      ],
      [
        "friend",
        "s"
      ],
      [
        "T",
        "h"
      ],
      [
        "b",
        "ed"
      ],
      [
        "c",
        "er"
      ],
      [
        "i",
        "ly"
      ],
      [
        "s",
        "ound"
      ],
      [
        "ed",
        "ge"
      ],
      [
        "to",
        "ge"
      ],
      [
        "ha",
        "lf"
      ],
      [
        "ke",
        "t"
      ],
      [
        "de",
        "ed"
      ],
      [
        "ion",
        "s"
      ],
      [
        "br",
        "ought"
      ],
      [
        "toge",
        "ther"
      ],
      [
        "f",
        "ast"
      ],
      [
        "k",
        "n"
      ],
      [
        "k",
        "en"
      ],
      [
        "be",
        "ing"
      ],
      [
        "al",
        "one"
      ],
      [
        "a",
        "v"
      ],
      [
        "k",
        "s"
      ],
      [
        "who",
        "le"
      ],
      [
        "Go",
        "llum"
      ],
      [
        "wa",
        "it"
      ],
      [
        "g",
        "ave"
      ],
      [
        "j",
        "o"
      ],
      [
        "on",
        "s"
      ],
      [
        "we",
        "en"
      ],
      [
        "ul",
        "t"
      ],
      [
        "bet",
        "ween"
      ],
      [
        "thre",
        "e"
      ],
      [
        "stoo",
        "d"
      ],
      [
        "m",
        "p"
      ],
      [
        "s",
        "ure"
      ],
      [
        "s",
        "low"
      ],
      [
        "w",
        "ind"
      ],
      [
        "re",
        "me"
      ],
      [
        "er",
        "ing"
      ],
      [
        "al",
        "so"
      ],
      [
        "lo",
        "st"
      ],
      [
        "ex",
        "pe"
      ],
      [
        "dou",
        "b"
      ],
      [
        "d",
        "one"
      ],
      [
        "th",
        "in"
      ],
      [
        "re",
        "ally"
      ],
      [
        "fe",
        "w"
      ],
      [
        "So",
        "me"
      ],
      [
        "ron",
        "t"
      ],
      [
        "g",
        "i"
      ],
      [
        "g",
        "one"
      ],
      [
        "m",
        "ind"
      ],
      [
        "gre",
        "en"
      ],
      [
        "other",
        "s"
      ],
      [
        "di",
        "re"
      ],
      [
        "B",
        "o"
      ],
      [
        "c",
        "ent"
      ],
      [
        "al",
        "ways"
      ],
      [
        "ad",
        "venture"
      ],
      [
        "A",
        "ll"
      ],
      [
        "d",
        "y"
      ],
      [
        "f",
        "oo"
      ],
      [
        "m",
        "it"
      ],
      [
        "he",
        "s"
      ],
      [
        "fo",
        "llow"
      ],
      [
        "com",
        "ing"
      ],
      [
        "wor",
        "ld"
      ],
      [
        "par",
        "t"
      ],
      [
        "dan",
        "ger"
      ],
      [
        "s",
        "ince"
      ],
      [
        "ac",
        "es"
      ],
      [
        "qu",
        "ick"
      ],
      [
        "hand",
        "s"
      ],
      [
        "poin",
        "t"
      ],
      [
        "mountain",
        "s"
      ],
      [
        "hu",
        "ge"
      ],
      [
        "F",
        "or"
      ],
      [
        "d",
        "red"
      ],
      [
        "p",
        "i"
      ],
      [
        "id",
        "d"
      ],
      [
        "all",
        "ey"
      ],
      [
        "hun",
        "dred"
      ],
      [
        "cli",
        "ff"
      ],
      [
        "b",
        "ur"
      ],
      [
        "g",
        "g"
      ],
      [
        "j",
        "e"
      ],
      [
        "s",
        "ci"
      ],
      [
        "en",
        "s"
      ],
      [
        "to",
        "p"
      ],
      [
        "to",
        "wards"
      ],
      [
        "ar",
        "s"
      ],
      [
        "al",
        "ready"
      ],
      [
        "ho",
        "pe"
      ],
      [
        "str",
        "ange"
      ],
      [
        "mb",
        "er"
      ],
      [
        "tow",
        "n"
      ],
      [
        "b",
        "ar"
      ],
      [
        "es",
        "tion"
      ],
      [
        "se",
        "lves"
      ],
      [
        "id",
        "er"
      ],
      [
        "po",
        "se"
      ],
      [
        "ex",
        "ce"
      ],
      [
        "wh",
        "ite"
      ],
      [
        "lar",
        "ge"
      ],
      [
        "f",
        "le"
      ],
      [
        "t",
        "ro"
      ],
      [
        "be",
        "low"
      ],
      [
        "pl",
        "ate"
      ],
      [
        "c",
        "es"
      ],
      [
        "c",
        "ri"
      ],
      [
        "k",
        "new"
      ],
      [
        "t",
        "able"
      ],
      [
        "v",
        "alley"
      ],
      [
        "qu",
        "i"
      ],
      [
        "gu",
        "ess"
      ],
      [
        "vo",
        "ice"
      ],
      [
        "B",
        "alin"
      ],
      [
        "H",
        "is"
      ],
      [
        "R",
        "o"
      ],
      [
        "b",
        "ird"
      ],
      [
        "c",
        "ed"
      ],
      [
        "f",
        "our"
      ],
      [
        "f",
        "ront"
      ],
      [
        "h",
        "ur"
      ],
      [
        "h",
        "um"
      ],
      [
        "t",
        "in"
      ],
      [
        "er",
        "y"
      ],
      [
        "he",
        "n"
      ],
      [
        "wi",
        "z"
      ],
      [
        "us",
        "hed"
      ],
      [
        "ca",
        "use"
      ],
      [
        "bet",
        "ter"
      ],
      [
        "ple",
        "as"
      ],
      [
        "k",
        "ind"
      ],
      [
        "en",
        "ti"
      ],
      [
        "mo",
        "on"
      ],
      [
        "again",
        "st"
      ],
      [
        "tun",
        "ne"
      ],
      [
        "plate",
        "au"
      ],
      [
        "e",
        "ag"
      ],
      [
        "e",
        "red"
      ],
      [
        "h",
        "er"
      ],
      [
        "l",
        "ad"
      ],
      [
        "l",
        "ake"
      ],
      [
        "n",
        "ed"
      ],
      [
        "o",
        "me"
      ],
      [
        "ou",
        "se"
      ],
      [
        "un",
        "g"
      ],
      [
        "ke",
        "ep"
      ],
      [
        "co",
        "ld"
      ],
      [
        "ne",
        "xt"
      ],
      [
        "hap",
        "s"
      ],
      [
        "pass",
        "ed"
      ],
      [
        "f",
        "lo"
      ],
      [
        "m",
        "in"
      ],
      [
        "le",
        "ep"
      ],
      [
        "st",
        "ep"
      ],
      [
        "ho",
        "ld"
      ],
      [
        "Indi",
        "ans"
      ],
      [
        "T",
        "o"
      ],
      [
        "f",
        "air"
      ],
      [
        "s",
        "n"
      ],
      [
        "in",
        "ter"
      ],
      [
        "me",
        "an"
      ],
      [
        "ve",
        "red"
      ],
      [
        "ut",
        "e"
      ],
      [
        "bl",
        "ed"
      ],
      [
        "how",
        "ever"
      ],
      [
        "cli",
        "mb"
      ],
      [
        "W",
        "h"
      ],
      [
        "b",
        "er"
      ],
      [
        "b",
        "es"
      ],
      [
        "p",
        "ers"
      ],
      [
        "as",
        "h"
      ],
      [
        "as",
        "sa"
      ],
      [
        "for",
        "m"
      ],
      [
        "for",
        "ward"
      ],
      [
        "il",
        "es"
      ],
      [
        "ul",
        "ar"
      ],
      [
        "word",
        "s"
      ],
      [
        "Be",
        "orn"
      ],
      [
        "dire",
        "ction"
      ],
      [
        "W",
        "hen"
      ],
      [
        "s",
        "ign"
      ],
      [
        "v",
        "is"
      ],
      [
        "ar",
        "m"
      ],
      [
        "ti",
        "mes"
      ],
      [
        "ne",
        "ed"
      ],
      [
        "con",
        "d"
      ],
      [
        "pre",
        "ss"
      ],
      [
        "str",
        "ong"
      ],
      [
        "bre",
        "ak"
      ],
      [
        "stre",
        "am"
      ],
      [
        "doub",
        "t"
      ],
      [
        "S",
        "outh"
      ],
      [
        "b",
        "ig"
      ],
      [
        "w",
        "al"
      ],
      [
        "as",
        "k"
      ],
      [
        "ch",
        "ing"
      ],
      [
        "fe",
        "lt"
      ],
      [
        "qu",
        "estion"
      ]
    ]
  }
}